unsigned char fire_model_quantized_tflite[] = {
  0x1c, 0x00, 0x00, 0x00, 0x54, 0x46, 0x4c, 0x33, 0x00, 0x00, 0x12, 0x00,
  0x1c, 0x00, 0x04, 0x00, 0x08, 0x00, 0x0c, 0x00, 0x10, 0x00, 0x14, 0x00,
  0x00, 0x00, 0x18, 0x00, 0x12, 0x00, 0x00, 0x00, 0x03, 0x00, 0x00, 0x00,
  0xa4, 0x0b, 0x00, 0x00, 0xc8, 0x06, 0x00, 0x00, 0xb0, 0x06, 0x00, 0x00,
  0x34, 0x00, 0x00, 0x00, 0x04, 0x00, 0x00, 0x00, 0x01, 0x00, 0x00, 0x00,
  0x04, 0x00, 0x00, 0x00, 0x04, 0xf5, 0xff, 0xff, 0x08, 0x00, 0x00, 0x00,
  0x0c, 0x00, 0x00, 0x00, 0x13, 0x00, 0x00, 0x00, 0x6d, 0x69, 0x6e, 0x5f,
  0x72, 0x75, 0x6e, 0x74, 0x69, 0x6d, 0x65, 0x5f, 0x76, 0x65, 0x72, 0x73,
  0x69, 0x6f, 0x6e, 0x00, 0x0d, 0x00, 0x00, 0x00, 0x70, 0x06, 0x00, 0x00,
  0x5c, 0x06, 0x00, 0x00, 0x04, 0x06, 0x00, 0x00, 0xf4, 0x01, 0x00, 0x00,
  0xa4, 0x01, 0x00, 0x00, 0x54, 0x01, 0x00, 0x00, 0x44, 0x00, 0x00, 0x00,
  0x3c, 0x00, 0x00, 0x00, 0x34, 0x00, 0x00, 0x00, 0x2c, 0x00, 0x00, 0x00,
  0x24, 0x00, 0x00, 0x00, 0x1c, 0x00, 0x00, 0x00, 0x04, 0x00, 0x00, 0x00,
  0xda, 0xf9, 0xff, 0xff, 0x04, 0x00, 0x00, 0x00, 0x06, 0x00, 0x00, 0x00,
  0x31, 0x2e, 0x31, 0x34, 0x2e, 0x30, 0x00, 0x00, 0x0c, 0xf5, 0xff, 0xff,
  0x10, 0xf5, 0xff, 0xff, 0x14, 0xf5, 0xff, 0xff, 0x18, 0xf5, 0xff, 0xff,
  0x1c, 0xf5, 0xff, 0xff, 0x02, 0xfa, 0xff, 0xff, 0x04, 0x00, 0x00, 0x00,
  0x00, 0x01, 0x00, 0x00, 0xb3, 0x48, 0xca, 0x3e, 0x30, 0x38, 0x9e, 0x3e,
  0x82, 0xbe, 0x05, 0xbf, 0xb1, 0xb7, 0xcd, 0x3e, 0x4c, 0xd7, 0x08, 0xbc,
  0x3d, 0x96, 0x25, 0xbd, 0x1a, 0xa0, 0x06, 0xbd, 0x60, 0xb5, 0x3c, 0x3b,
  0x35, 0x3c, 0xe0, 0x3e, 0xb0, 0xe5, 0x84, 0x3e, 0x25, 0xd9, 0xf6, 0xbe,
  0x3b, 0x8a, 0xcb, 0x3e, 0xe7, 0xfb, 0xdb, 0x3e, 0xcb, 0x22, 0xa2, 0x3e,
  0xe1, 0x5f, 0x00, 0xbf, 0xda, 0xd6, 0xaf, 0x3e, 0x12, 0x14, 0xde, 0x3e,
  0xa7, 0x55, 0x91, 0x3e, 0x99, 0x56, 0x05, 0xbf, 0x10, 0x96, 0xb9, 0x3e,
  0x93, 0x8a, 0x9d, 0x3d, 0x22, 0x56, 0xc1, 0xbe, 0xab, 0x6a, 0x30, 0x3f,
  0x8a, 0xba, 0xb6, 0x3e, 0x07, 0x7f, 0x3c, 0xbc, 0xd2, 0x15, 0x27, 0xbd,
  0x00, 0xf4, 0xef, 0x3c, 0x7a, 0x44, 0x46, 0xbd, 0x95, 0x26, 0xcc, 0x3e,
  0xa7, 0x67, 0xa1, 0x3e, 0xba, 0xa7, 0xf9, 0xbe, 0x14, 0xf8, 0xdd, 0x3e,
  0xd7, 0x08, 0xd3, 0x3e, 0x33, 0xcc, 0xa4, 0x3e, 0xb6, 0x7a, 0xec, 0xbe,
  0x63, 0x5e, 0xa2, 0x3e, 0x46, 0x74, 0xd7, 0x3e, 0xcb, 0xd3, 0x9f, 0x3e,
  0x49, 0x53, 0xf1, 0xbe, 0x1e, 0x2b, 0xd5, 0x3e, 0x15, 0x5c, 0xe2, 0x3e,
  0xe1, 0xba, 0x0a, 0x3e, 0x10, 0xfc, 0x30, 0x3f, 0x44, 0x46, 0xee, 0x3e,
  0x70, 0x15, 0x1d, 0xbd, 0x80, 0x4b, 0x6b, 0xbc, 0xb3, 0xe0, 0xa8, 0xbc,
  0xd0, 0xda, 0xba, 0xbb, 0x58, 0x51, 0x3d, 0x3c, 0x47, 0x2d, 0xeb, 0xbc,
  0x67, 0x6a, 0xc2, 0xbc, 0x0a, 0x5a, 0x26, 0xbd, 0x5e, 0x10, 0xd1, 0x3e,
  0xf1, 0x2b, 0x9d, 0x3e, 0xf9, 0xf8, 0xff, 0xbe, 0x2f, 0x6a, 0xbc, 0x3e,
  0x3a, 0xfa, 0xee, 0x3e, 0xd7, 0x40, 0x43, 0x3e, 0x11, 0x14, 0x30, 0x3f,
  0x8c, 0x76, 0x02, 0x3f, 0x5d, 0x5d, 0xc9, 0x3e, 0x64, 0xf0, 0x9c, 0x3e,
  0xb5, 0x1e, 0x06, 0xbf, 0xa1, 0x21, 0xd0, 0x3e, 0x0e, 0xfb, 0xff, 0xff,
  0x04, 0x00, 0x00, 0x00, 0x40, 0x00, 0x00, 0x00, 0x52, 0x36, 0xc7, 0x3e,
  0xcd, 0xa7, 0xce, 0x3e, 0x27, 0xaa, 0x39, 0xbd, 0xba, 0x19, 0xcd, 0x3e,
  0xac, 0x15, 0xd4, 0x3e, 0xf7, 0x61, 0xe7, 0xbc, 0xb2, 0x3c, 0xce, 0x3e,
  0xe0, 0x24, 0x23, 0xbf, 0x6b, 0x0e, 0x25, 0xbf, 0xe9, 0xda, 0xa2, 0x3c,
  0xa1, 0xbc, 0x0e, 0x3d, 0xe8, 0x1e, 0x92, 0xbb, 0x03, 0xe3, 0x21, 0xbf,
  0x56, 0x97, 0xd0, 0x3e, 0x53, 0x64, 0xa4, 0xbc, 0xdc, 0xf0, 0x22, 0xbf,
  0x5a, 0xfb, 0xff, 0xff, 0x04, 0x00, 0x00, 0x00, 0x40, 0x00, 0x00, 0x00,
  0xe5, 0xaf, 0xea, 0xbc, 0x00, 0x00, 0x00, 0x00, 0x3c, 0x2e, 0x82, 0xbd,
  0x4a, 0xff, 0x20, 0xbd, 0x98, 0x19, 0x14, 0xbd, 0x2f, 0x48, 0x10, 0x3f,
  0x9e, 0xc6, 0x76, 0xbc, 0xf3, 0xee, 0x56, 0xbd, 0x8a, 0x47, 0x33, 0xbd,
  0x54, 0xce, 0x85, 0xbd, 0x75, 0x34, 0x25, 0x3f, 0x00, 0x00, 0x00, 0x00,
  0x00, 0x00, 0x00, 0x00, 0x21, 0xb9, 0x13, 0xbd, 0x24, 0x53, 0x21, 0x3f,
  0xc1, 0x5e, 0xe2, 0xbc, 0xa6, 0xfb, 0xff, 0xff, 0x04, 0x00, 0x00, 0x00,
  0x00, 0x04, 0x00, 0x00, 0xbb, 0x08, 0xfd, 0x3e, 0x93, 0x54, 0xd3, 0xbc,
  0x7c, 0x73, 0xd1, 0x3e, 0xea, 0x32, 0xa9, 0x3e, 0xc0, 0x1b, 0xd5, 0x3e,
  0x27, 0xb8, 0xa3, 0xbe, 0x13, 0x08, 0xfc, 0xbc, 0xfc, 0xa4, 0xc7, 0x3e,
  0xd9, 0x3f, 0xc8, 0x3e, 0x94, 0x26, 0xb7, 0x3e, 0x03, 0x2c, 0x0a, 0x3e,
  0x4a, 0x29, 0x25, 0xbd, 0x18, 0xfd, 0xd5, 0x3b, 0x8c, 0xeb, 0xbc, 0x3e,
  0x76, 0x54, 0x44, 0x3e, 0x7d, 0xcb, 0xd0, 0x3e, 0xb9, 0x6d, 0xec, 0x3e,
  0x18, 0xe8, 0x88, 0x3b, 0x63, 0x0e, 0xb4, 0x3e, 0x46, 0xcc, 0xc1, 0x3e,
  0xc8, 0xcf, 0xc5, 0x3e, 0x48, 0x9a, 0xa1, 0xbe, 0x22, 0xc6, 0x3d, 0x3c,
  0x92, 0xbf, 0xbf, 0x3e, 0xff, 0xe2, 0xaa, 0x3e, 0xea, 0xd9, 0xba, 0x3e,
  0x21, 0x14, 0x07, 0x3e, 0xcd, 0xc9, 0x2e, 0x3d, 0x80, 0x3e, 0xd7, 0xbc,
  0x10, 0xd9, 0xb4, 0x3e, 0x6f, 0xce, 0x37, 0x3e, 0xef, 0x52, 0xc9, 0x3e,
  0x4d, 0x9d, 0xba, 0xbc, 0xf4, 0x35, 0x0a, 0xbc, 0x2e, 0xae, 0x85, 0x3c,
  0x84, 0xbc, 0x52, 0x3c, 0xc0, 0xfd, 0x00, 0xbd, 0xe6, 0x68, 0x07, 0xbd,
  0x86, 0x28, 0x9e, 0x3c, 0x4d, 0x45, 0xb9, 0xbc, 0xb0, 0x36, 0x24, 0xbd,
  0xf2, 0x3d, 0xd7, 0x3c, 0xf3, 0xfc, 0x16, 0x3d, 0x00, 0x2f, 0xf5, 0x3b,
  0x92, 0xd2, 0xe9, 0x3c, 0xe0, 0x5b, 0xae, 0xbc, 0x3a, 0xc5, 0x3e, 0xbd,
  0xce, 0x49, 0xf9, 0x3c, 0x8e, 0xe0, 0xf1, 0x3e, 0x8d, 0xb3, 0x32, 0x3d,
  0xd9, 0x53, 0xd2, 0x3e, 0x49, 0x28, 0xb5, 0x3e, 0xd1, 0xdf, 0xcb, 0x3e,
  0x66, 0xf1, 0x9f, 0xbe, 0x56, 0xf8, 0x38, 0x3c, 0x8f, 0xf3, 0x99, 0x3e,
  0x72, 0x1e, 0xb9, 0x3e, 0x1f, 0x1c, 0xae, 0x3e, 0xca, 0x57, 0x10, 0x3e,
  0xf4, 0x6c, 0x69, 0x3c, 0x9a, 0x1f, 0xfa, 0xbc, 0x53, 0x1f, 0xce, 0x3e,
  0xeb, 0x69, 0x5d, 0x3e, 0xd3, 0x17, 0xb4, 0x3e, 0x6d, 0x2f, 0xd9, 0x3e,
  0x80, 0x90, 0x28, 0xbc, 0x59, 0x06, 0xcb, 0x3e, 0x9b, 0xfb, 0xab, 0x3e,
  0x51, 0x7f, 0xb0, 0x3e, 0xb7, 0xe0, 0x94, 0xbe, 0x33, 0xed, 0x14, 0x3d,
  0x5e, 0xc5, 0xae, 0x3e, 0x11, 0x9f, 0xb6, 0x3e, 0x24, 0x93, 0xab, 0x3e,
  0xc2, 0x03, 0xec, 0x3d, 0x29, 0xd1, 0x01, 0x3d, 0xe8, 0x02, 0x8e, 0x3b,
  0x95, 0x95, 0xb3, 0x3e, 0xb6, 0xd3, 0x4d, 0x3e, 0x99, 0x08, 0xbe, 0x3e,
  0x80, 0x06, 0x38, 0xba, 0xe8, 0xa0, 0xec, 0xbb, 0x20, 0x4d, 0xa7, 0xbc,
  0xd0, 0x2c, 0x9d, 0x3a, 0x57, 0x9b, 0x03, 0xbd, 0x3e, 0x93, 0x37, 0xbd,
  0x37, 0x8f, 0x34, 0x3d, 0x58, 0x29, 0x7e, 0xbc, 0xe6, 0xb3, 0x09, 0xbd,
  0x5a, 0x4b, 0x81, 0x3c, 0x0a, 0xe1, 0x20, 0x3c, 0x1a, 0x87, 0xbb, 0x3c,
  0x4c, 0x42, 0x19, 0xbc, 0x68, 0xbf, 0x55, 0xbd, 0xb1, 0xba, 0x90, 0x3c,
  0x9d, 0x47, 0x35, 0x3d, 0xbc, 0x49, 0xda, 0x3e, 0xc3, 0xe0, 0x1f, 0xbd,
  0x1b, 0xb8, 0xc6, 0x3e, 0xbd, 0xce, 0xb7, 0x3e, 0x79, 0x96, 0xbb, 0x3e,
  0x42, 0x43, 0x93, 0xbe, 0xcf, 0xe2, 0x0c, 0xbd, 0xfc, 0xd5, 0xcf, 0x3e,
  0xa0, 0x4d, 0xe3, 0x3e, 0x1b, 0x29, 0xb4, 0x3e, 0xdc, 0xea, 0x1a, 0x3e,
  0x5d, 0x3f, 0x32, 0xbd, 0x43, 0x07, 0x29, 0x3d, 0xd6, 0x5b, 0xdb, 0x3e,
  0x82, 0xab, 0x18, 0x3e, 0xe0, 0x91, 0xca, 0x3e, 0xd3, 0x17, 0x16, 0xbf,
  0x0c, 0x14, 0x04, 0xbc, 0x2c, 0xa1, 0x0a, 0xbf, 0x8d, 0xe3, 0x11, 0xbf,
  0xa7, 0x0a, 0x12, 0xbf, 0x2a, 0xcd, 0x23, 0x3f, 0x75, 0xa8, 0x07, 0xbd,
  0x1e, 0x67, 0x04, 0xbf, 0x42, 0x23, 0x11, 0xbf, 0x9f, 0xa0, 0xdd, 0xbe,
  0x86, 0x9c, 0x17, 0x3f, 0x00, 0xa2, 0x33, 0xbc, 0x02, 0xdc, 0xdf, 0x3c,
  0xbe, 0xad, 0x07, 0xbf, 0x17, 0x74, 0x1e, 0x3f, 0x12, 0x06, 0x10, 0xbf,
  0x74, 0x45, 0x0e, 0xbf, 0xb0, 0x30, 0xe8, 0xbb, 0xe6, 0x52, 0x06, 0xbf,
  0x95, 0xb4, 0x07, 0xbf, 0x82, 0x7f, 0x0d, 0xbf, 0xcf, 0xbc, 0x21, 0x3f,
  0x86, 0x3b, 0xef, 0xbc, 0x6b, 0x2f, 0x07, 0xbf, 0x99, 0xd1, 0x04, 0xbf,
  0x84, 0xf6, 0xf7, 0xbe, 0xa2, 0x47, 0x1c, 0x3f, 0xd0, 0x76, 0xd3, 0x3b,
  0x00, 0x8c, 0xf1, 0xbb, 0xf5, 0x63, 0x0c, 0xbf, 0x16, 0xd7, 0x1d, 0x3f,
  0xf9, 0xdb, 0x03, 0xbf, 0xee, 0xd9, 0xa9, 0x3c, 0x59, 0xd6, 0x4b, 0x3d,
  0xfd, 0x1b, 0xc1, 0x3c, 0x75, 0xa1, 0xdb, 0xbc, 0x96, 0x5b, 0x0e, 0xbd,
  0xc6, 0xd8, 0x26, 0xbc, 0x30, 0xf3, 0x14, 0x3d, 0x68, 0x9e, 0x2b, 0xbb,
  0x3f, 0x79, 0xd5, 0x3c, 0x84, 0xe4, 0x9d, 0x3b, 0x2f, 0xa2, 0x69, 0xbd,
  0x8c, 0x17, 0x00, 0x3c, 0x43, 0x38, 0x23, 0xbd, 0x4d, 0x70, 0xcb, 0xbc,
  0x1c, 0x3a, 0x27, 0xbc, 0x97, 0x74, 0x3a, 0xbd, 0xa8, 0x24, 0x09, 0xbc,
  0x61, 0x65, 0x05, 0x3d, 0xc0, 0x4f, 0x06, 0xbc, 0x46, 0x17, 0x12, 0xbd,
  0x40, 0x35, 0xbc, 0x3a, 0x43, 0x62, 0x34, 0xbd, 0x3d, 0x20, 0x11, 0xbd,
  0x07, 0xcf, 0x41, 0x3d, 0x32, 0xe6, 0xfa, 0x3c, 0x60, 0x74, 0x29, 0xbd,
  0x00, 0xd8, 0x31, 0xbb, 0x47, 0xfb, 0x0c, 0x3d, 0x27, 0x1a, 0x0a, 0x3d,
  0x22, 0x40, 0xca, 0x3c, 0x98, 0x89, 0xc4, 0xbb, 0xbd, 0x3f, 0x49, 0xbd,
  0x00, 0x09, 0x65, 0xbb, 0x61, 0x9e, 0x3b, 0x3d, 0xd0, 0xfc, 0x4f, 0x3b,
  0xe6, 0xf6, 0x15, 0xbd, 0x86, 0x6c, 0xa5, 0x3c, 0xb4, 0x3c, 0x44, 0x3c,
  0x2d, 0xb0, 0xfb, 0xbc, 0xfa, 0x0d, 0xd1, 0xbc, 0x50, 0xcc, 0xe9, 0xbb,
  0xa7, 0x1f, 0xb1, 0xbc, 0x13, 0x02, 0xe3, 0xbc, 0xb0, 0xa1, 0x25, 0xbd,
  0x37, 0xc3, 0x41, 0xbd, 0x42, 0x18, 0xff, 0x3c, 0x5d, 0x27, 0x17, 0xbd,
  0x09, 0xa6, 0x4c, 0x3d, 0xa6, 0x10, 0x12, 0xbf, 0xe4, 0x56, 0x72, 0x3c,
  0x25, 0xa3, 0x03, 0xbf, 0x4f, 0xe0, 0xf9, 0xbe, 0xf8, 0x14, 0xfe, 0xbe,
  0xec, 0xe6, 0x21, 0x3f, 0x57, 0xec, 0x70, 0xbc, 0x1a, 0xf1, 0x06, 0xbf,
  0xef, 0x16, 0x06, 0xbf, 0x05, 0x19, 0xdd, 0xbe, 0x04, 0xb7, 0x16, 0x3f,
  0x30, 0xdd, 0x05, 0xbb, 0x0d, 0x2b, 0xae, 0xbc, 0xc8, 0x24, 0x11, 0xbf,
  0xfd, 0x53, 0x14, 0x3f, 0x53, 0xc3, 0x0a, 0xbf, 0x41, 0xdb, 0xee, 0x3e,
  0x6e, 0xf9, 0xaf, 0x3c, 0x51, 0xa0, 0xb5, 0x3e, 0x93, 0x0b, 0xc9, 0x3e,
  0xeb, 0x92, 0xad, 0x3e, 0x82, 0xa0, 0xac, 0xbe, 0x14, 0x93, 0x6a, 0xbd,
  0x20, 0x3f, 0xc8, 0x3e, 0x3d, 0xb5, 0xae, 0x3e, 0xb5, 0x9a, 0xbb, 0x3e,
  0xf4, 0x02, 0x03, 0x3e, 0x18, 0x9f, 0x37, 0x3c, 0xa8, 0x97, 0x3d, 0xbc,
  0xd6, 0x95, 0xab, 0x3e, 0x1c, 0xf4, 0x65, 0x3e, 0x40, 0x67, 0xae, 0x3e,
  0x4d, 0x54, 0x4a, 0xbd, 0xdd, 0x68, 0x3b, 0xbd, 0xba, 0xe2, 0x2a, 0xbd,
  0x74, 0xda, 0x52, 0x3c, 0x0a, 0x67, 0x3a, 0xbd, 0x80, 0x29, 0xa4, 0xb9,
  0xa7, 0xa1, 0x36, 0xbd, 0x13, 0x03, 0x4a, 0xbd, 0x72, 0xf5, 0xa4, 0x3c,
  0xc4, 0x52, 0x5d, 0x3c, 0x20, 0xc8, 0xe4, 0xbc, 0x3a, 0x0a, 0xcb, 0xbc,
  0x09, 0x8a, 0x11, 0x3d, 0xa4, 0x19, 0x7e, 0x3c, 0x67, 0xe9, 0xef, 0xbc,
  0xc0, 0x4a, 0xfd, 0xba, 0x35, 0x56, 0x0f, 0xbf, 0x5a, 0x31, 0x89, 0x3c,
  0xf8, 0x89, 0x0c, 0xbf, 0x93, 0x90, 0x0c, 0xbf, 0x04, 0x9b, 0x03, 0xbf,
  0x73, 0x08, 0x21, 0x3f, 0xaf, 0x75, 0x54, 0x3c, 0x5e, 0x63, 0x06, 0xbf,
  0x1b, 0xfe, 0x00, 0xbf, 0x76, 0x94, 0xde, 0xbe, 0xf5, 0x0f, 0x1a, 0x3f,
  0xda, 0x20, 0x81, 0x3c, 0x13, 0x3e, 0x9d, 0xbc, 0xd4, 0x85, 0x08, 0xbf,
  0x64, 0x56, 0x10, 0x3f, 0xa8, 0x15, 0x08, 0xbf, 0xb2, 0xff, 0xff, 0xff,
  0x04, 0x00, 0x00, 0x00, 0x40, 0x00, 0x00, 0x00, 0xea, 0x58, 0xc4, 0xbd,
  0xb0, 0x7c, 0xa5, 0xbd, 0x00, 0x00, 0x00, 0x00, 0xf0, 0x0c, 0x11, 0xbe,
  0x4b, 0x66, 0xe4, 0xbd, 0x8c, 0x8c, 0xac, 0xbb, 0x6c, 0x4a, 0xc2, 0xbd,
  0xa7, 0x37, 0xe3, 0x3e, 0xa2, 0xad, 0xdd, 0x3e, 0x3a, 0x92, 0x15, 0xbc,
  0x00, 0x00, 0x00, 0x00, 0x00, 0x00, 0x00, 0x00, 0xe5, 0xf1, 0xe8, 0x3e,
  0x7a, 0xbe, 0xe3, 0xbd, 0x00, 0x00, 0x00, 0x00, 0x1d, 0x37, 0xe7, 0x3e,
  0x00, 0x00, 0x06, 0x00, 0x08, 0x00, 0x04, 0x00, 0x06, 0x00, 0x00, 0x00,
  0x04, 0x00, 0x00, 0x00, 0x04, 0x00, 0x00, 0x00, 0x66, 0xaa, 0x88, 0xbe,
  0x34, 0xfb, 0xff, 0xff, 0x0f, 0x00, 0x00, 0x00, 0x54, 0x4f, 0x43, 0x4f,
  0x20, 0x43, 0x6f, 0x6e, 0x76, 0x65, 0x72, 0x74, 0x65, 0x64, 0x2e, 0x00,
  0x01, 0x00, 0x00, 0x00, 0x10, 0x00, 0x00, 0x00, 0x0c, 0x00, 0x14, 0x00,
  0x04, 0x00, 0x08, 0x00, 0x0c, 0x00, 0x10, 0x00, 0x0c, 0x00, 0x00, 0x00,
  0x20, 0x01, 0x00, 0x00, 0x14, 0x01, 0x00, 0x00, 0x08, 0x01, 0x00, 0x00,
  0x04, 0x00, 0x00, 0x00, 0x04, 0x00, 0x00, 0x00, 0xc0, 0x00, 0x00, 0x00,
  0x78, 0x00, 0x00, 0x00, 0x34, 0x00, 0x00, 0x00, 0x10, 0x00, 0x00, 0x00,
  0x00, 0x00, 0x0a, 0x00, 0x10, 0x00, 0x04, 0x00, 0x08, 0x00, 0x0c, 0x00,
  0x0a, 0x00, 0x00, 0x00, 0x01, 0x00, 0x00, 0x00, 0x10, 0x00, 0x00, 0x00,
  0x04, 0x00, 0x00, 0x00, 0x01, 0x00, 0x00, 0x00, 0x00, 0x00, 0x00, 0x00,
  0x01, 0x00, 0x00, 0x00, 0x08, 0x00, 0x00, 0x00, 0xce, 0xff, 0xff, 0xff,
  0x00, 0x00, 0x00, 0x08, 0x18, 0x00, 0x00, 0x00, 0x0c, 0x00, 0x00, 0x00,
  0x04, 0x00, 0x00, 0x00, 0xc8, 0xfb, 0xff, 0xff, 0x01, 0x00, 0x00, 0x00,
  0x08, 0x00, 0x00, 0x00, 0x03, 0x00, 0x00, 0x00, 0x07, 0x00, 0x00, 0x00,
  0x09, 0x00, 0x00, 0x00, 0x0a, 0x00, 0x00, 0x00, 0x00, 0x00, 0x0e, 0x00,
  0x14, 0x00, 0x00, 0x00, 0x08, 0x00, 0x0c, 0x00, 0x07, 0x00, 0x10, 0x00,
  0x0e, 0x00, 0x00, 0x00, 0x00, 0x00, 0x00, 0x08, 0x1c, 0x00, 0x00, 0x00,
  0x10, 0x00, 0x00, 0x00, 0x04, 0x00, 0x00, 0x00, 0xba, 0xff, 0xff, 0xff,
  0x00, 0x00, 0x00, 0x01, 0x01, 0x00, 0x00, 0x00, 0x07, 0x00, 0x00, 0x00,
  0x03, 0x00, 0x00, 0x00, 0x04, 0x00, 0x00, 0x00, 0x05, 0x00, 0x00, 0x00,
  0x06, 0x00, 0x00, 0x00, 0x00, 0x00, 0x0e, 0x00, 0x16, 0x00, 0x00, 0x00,
  0x08, 0x00, 0x0c, 0x00, 0x07, 0x00, 0x10, 0x00, 0x0e, 0x00, 0x00, 0x00,
  0x00, 0x00, 0x00, 0x08, 0x24, 0x00, 0x00, 0x00, 0x18, 0x00, 0x00, 0x00,
  0x0c, 0x00, 0x00, 0x00, 0x00, 0x00, 0x06, 0x00, 0x08, 0x00, 0x07, 0x00,
  0x06, 0x00, 0x00, 0x00, 0x00, 0x00, 0x00, 0x01, 0x01, 0x00, 0x00, 0x00,
  0x04, 0x00, 0x00, 0x00, 0x03, 0x00, 0x00, 0x00, 0x01, 0x00, 0x00, 0x00,
  0x02, 0x00, 0x00, 0x00, 0x03, 0x00, 0x00, 0x00, 0x01, 0x00, 0x00, 0x00,
  0x00, 0x00, 0x00, 0x00, 0x01, 0x00, 0x00, 0x00, 0x01, 0x00, 0x00, 0x00,
  0x0b, 0x00, 0x00, 0x00, 0x64, 0x03, 0x00, 0x00, 0xf8, 0x02, 0x00, 0x00,
  0x94, 0x02, 0x00, 0x00, 0x48, 0x02, 0x00, 0x00, 0xfc, 0x01, 0x00, 0x00,
  0x98, 0x01, 0x00, 0x00, 0x4c, 0x01, 0x00, 0x00, 0x00, 0x01, 0x00, 0x00,
  0xb4, 0x00, 0x00, 0x00, 0x50, 0x00, 0x00, 0x00, 0x04, 0x00, 0x00, 0x00,
  0xd6, 0xfc, 0xff, 0xff, 0x3c, 0x00, 0x00, 0x00, 0x01, 0x00, 0x00, 0x00,
  0x0c, 0x00, 0x00, 0x00, 0x04, 0x00, 0x00, 0x00, 0xc8, 0xfc, 0xff, 0xff,
  0x23, 0x00, 0x00, 0x00, 0x73, 0x65, 0x71, 0x75, 0x65, 0x6e, 0x74, 0x69,
  0x61, 0x6c, 0x5f, 0x34, 0x39, 0x2f, 0x64, 0x65, 0x6e, 0x73, 0x65, 0x5f,
  0x31, 0x33, 0x37, 0x2f, 0x4d, 0x61, 0x74, 0x4d, 0x75, 0x6c, 0x5f, 0x62,
  0x69, 0x61, 0x73, 0x00, 0x01, 0x00, 0x00, 0x00, 0x01, 0x00, 0x00, 0x00,
  0x1e, 0xfd, 0xff, 0xff, 0x50, 0x00, 0x00, 0x00, 0x05, 0x00, 0x00, 0x00,
  0x0c, 0x00, 0x00, 0x00, 0x04, 0x00, 0x00, 0x00, 0x10, 0xfd, 0xff, 0xff,
  0x37, 0x00, 0x00, 0x00, 0x73, 0x65, 0x71, 0x75, 0x65, 0x6e, 0x74, 0x69,
  0x61, 0x6c, 0x5f, 0x34, 0x39, 0x2f, 0x64, 0x65, 0x6e, 0x73, 0x65, 0x5f,
  0x31, 0x33, 0x37, 0x2f, 0x4d, 0x61, 0x74, 0x4d, 0x75, 0x6c, 0x2f, 0x52,
  0x65, 0x61, 0x64, 0x56, 0x61, 0x72, 0x69, 0x61, 0x62, 0x6c, 0x65, 0x4f,
  0x70, 0x2f, 0x74, 0x72, 0x61, 0x6e, 0x73, 0x70, 0x6f, 0x73, 0x65, 0x00,
  0x02, 0x00, 0x00, 0x00, 0x01, 0x00, 0x00, 0x00, 0x10, 0x00, 0x00, 0x00,
  0x7e, 0xfd, 0xff, 0xff, 0x38, 0x00, 0x00, 0x00, 0x09, 0x00, 0x00, 0x00,
  0x0c, 0x00, 0x00, 0x00, 0x04, 0x00, 0x00, 0x00, 0x70, 0xfd, 0xff, 0xff,
  0x1f, 0x00, 0x00, 0x00, 0x73, 0x65, 0x71, 0x75, 0x65, 0x6e, 0x74, 0x69,
  0x61, 0x6c, 0x5f, 0x34, 0x39, 0x2f, 0x64, 0x65, 0x6e, 0x73, 0x65, 0x5f,
  0x31, 0x33, 0x37, 0x2f, 0x42, 0x69, 0x61, 0x73, 0x41, 0x64, 0x64, 0x00,
  0x02, 0x00, 0x00, 0x00, 0x01, 0x00, 0x00, 0x00, 0x01, 0x00, 0x00, 0x00,
  0xc6, 0xfd, 0xff, 0xff, 0x38, 0x00, 0x00, 0x00, 0x0b, 0x00, 0x00, 0x00,
  0x0c, 0x00, 0x00, 0x00, 0x04, 0x00, 0x00, 0x00, 0xb8, 0xfd, 0xff, 0xff,
  0x1c, 0x00, 0x00, 0x00, 0x73, 0x65, 0x71, 0x75, 0x65, 0x6e, 0x74, 0x69,
  0x61, 0x6c, 0x5f, 0x34, 0x39, 0x2f, 0x64, 0x65, 0x6e, 0x73, 0x65, 0x5f,
  0x31, 0x33, 0x36, 0x2f, 0x52, 0x65, 0x6c, 0x75, 0x00, 0x00, 0x00, 0x00,
  0x02, 0x00, 0x00, 0x00, 0x01, 0x00, 0x00, 0x00, 0x10, 0x00, 0x00, 0x00,
  0x0e, 0xfe, 0xff, 0xff, 0x3c, 0x00, 0x00, 0x00, 0x02, 0x00, 0x00, 0x00,
  0x0c, 0x00, 0x00, 0x00, 0x04, 0x00, 0x00, 0x00, 0x00, 0xfe, 0xff, 0xff,
  0x23, 0x00, 0x00, 0x00, 0x73, 0x65, 0x71, 0x75, 0x65, 0x6e, 0x74, 0x69,
  0x61, 0x6c, 0x5f, 0x34, 0x39, 0x2f, 0x64, 0x65, 0x6e, 0x73, 0x65, 0x5f,
  0x31, 0x33, 0x36, 0x2f, 0x4d, 0x61, 0x74, 0x4d, 0x75, 0x6c, 0x5f, 0x62,
  0x69, 0x61, 0x73, 0x00, 0x01, 0x00, 0x00, 0x00, 0x10, 0x00, 0x00, 0x00,
  0x56, 0xfe, 0xff, 0xff, 0x50, 0x00, 0x00, 0x00, 0x03, 0x00, 0x00, 0x00,
  0x0c, 0x00, 0x00, 0x00, 0x04, 0x00, 0x00, 0x00, 0x48, 0xfe, 0xff, 0xff,
  0x37, 0x00, 0x00, 0x00, 0x73, 0x65, 0x71, 0x75, 0x65, 0x6e, 0x74, 0x69,
  0x61, 0x6c, 0x5f, 0x34, 0x39, 0x2f, 0x64, 0x65, 0x6e, 0x73, 0x65, 0x5f,
  0x31, 0x33, 0x36, 0x2f, 0x4d, 0x61, 0x74, 0x4d, 0x75, 0x6c, 0x2f, 0x52,
  0x65, 0x61, 0x64, 0x56, 0x61, 0x72, 0x69, 0x61, 0x62, 0x6c, 0x65, 0x4f,
  0x70, 0x2f, 0x74, 0x72, 0x61, 0x6e, 0x73, 0x70, 0x6f, 0x73, 0x65, 0x00,
  0x02, 0x00, 0x00, 0x00, 0x10, 0x00, 0x00, 0x00, 0x10, 0x00, 0x00, 0x00,
  0xb6, 0xfe, 0xff, 0xff, 0x38, 0x00, 0x00, 0x00, 0x0a, 0x00, 0x00, 0x00,
  0x0c, 0x00, 0x00, 0x00, 0x04, 0x00, 0x00, 0x00, 0xa8, 0xfe, 0xff, 0xff,
  0x1c, 0x00, 0x00, 0x00, 0x73, 0x65, 0x71, 0x75, 0x65, 0x6e, 0x74, 0x69,
  0x61, 0x6c, 0x5f, 0x34, 0x39, 0x2f, 0x64, 0x65, 0x6e, 0x73, 0x65, 0x5f,
  0x31, 0x33, 0x35, 0x2f, 0x52, 0x65, 0x6c, 0x75, 0x00, 0x00, 0x00, 0x00,
  0x02, 0x00, 0x00, 0x00, 0x01, 0x00, 0x00, 0x00, 0x10, 0x00, 0x00, 0x00,
  0xfe, 0xfe, 0xff, 0xff, 0x3c, 0x00, 0x00, 0x00, 0x04, 0x00, 0x00, 0x00,
  0x0c, 0x00, 0x00, 0x00, 0x04, 0x00, 0x00, 0x00, 0xf0, 0xfe, 0xff, 0xff,
  0x23, 0x00, 0x00, 0x00, 0x73, 0x65, 0x71, 0x75, 0x65, 0x6e, 0x74, 0x69,
  0x61, 0x6c, 0x5f, 0x34, 0x39, 0x2f, 0x64, 0x65, 0x6e, 0x73, 0x65, 0x5f,
  0x31, 0x33, 0x35, 0x2f, 0x4d, 0x61, 0x74, 0x4d, 0x75, 0x6c, 0x5f, 0x62,
  0x69, 0x61, 0x73, 0x00, 0x01, 0x00, 0x00, 0x00, 0x10, 0x00, 0x00, 0x00,
  0x46, 0xff, 0xff, 0xff, 0x50, 0x00, 0x00, 0x00, 0x06, 0x00, 0x00, 0x00,
  0x0c, 0x00, 0x00, 0x00, 0x04, 0x00, 0x00, 0x00, 0x38, 0xff, 0xff, 0xff,
  0x37, 0x00, 0x00, 0x00, 0x73, 0x65, 0x71, 0x75, 0x65, 0x6e, 0x74, 0x69,
  0x61, 0x6c, 0x5f, 0x34, 0x39, 0x2f, 0x64, 0x65, 0x6e, 0x73, 0x65, 0x5f,
  0x31, 0x33, 0x35, 0x2f, 0x4d, 0x61, 0x74, 0x4d, 0x75, 0x6c, 0x2f, 0x52,
  0x65, 0x61, 0x64, 0x56, 0x61, 0x72, 0x69, 0x61, 0x62, 0x6c, 0x65, 0x4f,
  0x70, 0x2f, 0x74, 0x72, 0x61, 0x6e, 0x73, 0x70, 0x6f, 0x73, 0x65, 0x00,
  0x02, 0x00, 0x00, 0x00, 0x10, 0x00, 0x00, 0x00, 0x04, 0x00, 0x00, 0x00,
  0xa6, 0xff, 0xff, 0xff, 0x48, 0x00, 0x00, 0x00, 0x08, 0x00, 0x00, 0x00,
  0x2c, 0x00, 0x00, 0x00, 0x0c, 0x00, 0x00, 0x00, 0x08, 0x00, 0x0c, 0x00,
  0x04, 0x00, 0x08, 0x00, 0x08, 0x00, 0x00, 0x00, 0x10, 0x00, 0x00, 0x00,
  0x04, 0x00, 0x00, 0x00, 0x01, 0x00, 0x00, 0x00, 0x00, 0x00, 0x7f, 0x43,
  0x01, 0x00, 0x00, 0x00, 0x00, 0x00, 0x00, 0x00, 0x0f, 0x00, 0x00, 0x00,
  0x64, 0x65, 0x6e, 0x73, 0x65, 0x5f, 0x31, 0x33, 0x35, 0x5f, 0x69, 0x6e,
  0x70, 0x75, 0x74, 0x00, 0x02, 0x00, 0x00, 0x00, 0x01, 0x00, 0x00, 0x00,
  0x04, 0x00, 0x00, 0x00, 0x00, 0x00, 0x0e, 0x00, 0x14, 0x00, 0x04, 0x00,
  0x00, 0x00, 0x08, 0x00, 0x0c, 0x00, 0x10, 0x00, 0x0e, 0x00, 0x00, 0x00,
  0x28, 0x00, 0x00, 0x00, 0x07, 0x00, 0x00, 0x00, 0x10, 0x00, 0x00, 0x00,
  0x08, 0x00, 0x00, 0x00, 0x04, 0x00, 0x04, 0x00, 0x04, 0x00, 0x00, 0x00,
  0x08, 0x00, 0x00, 0x00, 0x49, 0x64, 0x65, 0x6e, 0x74, 0x69, 0x74, 0x79,
  0x00, 0x00, 0x00, 0x00, 0x02, 0x00, 0x00, 0x00, 0x01, 0x00, 0x00, 0x00,
  0x01, 0x00, 0x00, 0x00, 0x02, 0x00, 0x00, 0x00, 0x20, 0x00, 0x00, 0x00,
  0x0c, 0x00, 0x00, 0x00, 0x00, 0x00, 0x06, 0x00, 0x06, 0x00, 0x05, 0x00,
  0x06, 0x00, 0x00, 0x00, 0x00, 0x0e, 0x0a, 0x00, 0x0c, 0x00, 0x07, 0x00,
  0x00, 0x00, 0x08, 0x00, 0x0a, 0x00, 0x00, 0x00, 0x00, 0x00, 0x00, 0x09,
  0x03, 0x00, 0x00, 0x00
};
unsigned int fire_model_quantized_tflite_len = 3064;
