unsigned char growth_model_quantized_tflite[] = {
  0x1c, 0x00, 0x00, 0x00, 0x54, 0x46, 0x4c, 0x33, 0x00, 0x00, 0x12, 0x00,
  0x1c, 0x00, 0x04, 0x00, 0x08, 0x00, 0x0c, 0x00, 0x10, 0x00, 0x14, 0x00,
  0x00, 0x00, 0x18, 0x00, 0x12, 0x00, 0x00, 0x00, 0x03, 0x00, 0x00, 0x00,
  0x58, 0x0a, 0x00, 0x00, 0x00, 0x06, 0x00, 0x00, 0xe8, 0x05, 0x00, 0x00,
  0x34, 0x00, 0x00, 0x00, 0x04, 0x00, 0x00, 0x00, 0x01, 0x00, 0x00, 0x00,
  0x04, 0x00, 0x00, 0x00, 0x50, 0xf6, 0xff, 0xff, 0x08, 0x00, 0x00, 0x00,
  0x0b, 0x00, 0x00, 0x00, 0x13, 0x00, 0x00, 0x00, 0x6d, 0x69, 0x6e, 0x5f,
  0x72, 0x75, 0x6e, 0x74, 0x69, 0x6d, 0x65, 0x5f, 0x76, 0x65, 0x72, 0x73,
  0x69, 0x6f, 0x6e, 0x00, 0x0c, 0x00, 0x00, 0x00, 0xa8, 0x05, 0x00, 0x00,
  0x94, 0x05, 0x00, 0x00, 0x3c, 0x05, 0x00, 0x00, 0xec, 0x04, 0x00, 0x00,
  0x9c, 0x04, 0x00, 0x00, 0x94, 0x04, 0x00, 0x00, 0x44, 0x04, 0x00, 0x00,
  0x34, 0x00, 0x00, 0x00, 0x2c, 0x00, 0x00, 0x00, 0x24, 0x00, 0x00, 0x00,
  0x1c, 0x00, 0x00, 0x00, 0x04, 0x00, 0x00, 0x00, 0x9e, 0xfa, 0xff, 0xff,
  0x04, 0x00, 0x00, 0x00, 0x05, 0x00, 0x00, 0x00, 0x31, 0x2e, 0x35, 0x2e,
  0x30, 0x00, 0x00, 0x00, 0x54, 0xf6, 0xff, 0xff, 0x58, 0xf6, 0xff, 0xff,
  0x5c, 0xf6, 0xff, 0xff, 0xbe, 0xfa, 0xff, 0xff, 0x04, 0x00, 0x00, 0x00,
  0x00, 0x04, 0x00, 0x00, 0x00, 0xcc, 0xbe, 0xba, 0x7d, 0xc5, 0x8a, 0x3e,
  0xbd, 0xba, 0x96, 0x3e, 0xd1, 0x11, 0x46, 0x3e, 0x71, 0xfa, 0x84, 0x3e,
  0xf7, 0x16, 0x9b, 0x3e, 0x94, 0x24, 0x67, 0xbd, 0xcf, 0xb1, 0xda, 0x3e,
  0xa1, 0xb1, 0x67, 0x3e, 0xc0, 0x6e, 0x88, 0x3d, 0xd6, 0xb2, 0x7e, 0xbe,
  0x70, 0x34, 0xdc, 0x3d, 0x28, 0x48, 0x0b, 0x3f, 0x3f, 0x75, 0xb7, 0x3e,
  0xa0, 0xc3, 0xdd, 0xbc, 0x91, 0xc1, 0x91, 0x3e, 0x94, 0xf2, 0x9b, 0xbd,
  0xed, 0xd9, 0xa8, 0xbe, 0x96, 0xdf, 0x31, 0xbe, 0xa9, 0xb4, 0xca, 0xbe,
  0x20, 0xaf, 0x14, 0x3d, 0x4c, 0x56, 0x80, 0xbd, 0x4a, 0x30, 0x77, 0x3e,
  0x2c, 0xc4, 0xd9, 0x3d, 0x31, 0x9f, 0xa4, 0xbe, 0xde, 0xdb, 0x1f, 0x3e,
  0x4f, 0x4d, 0xa6, 0x3e, 0x5e, 0x5f, 0x30, 0x3e, 0x8c, 0xe8, 0x9a, 0x3d,
  0xb7, 0x83, 0x54, 0xbe, 0x16, 0xb1, 0x01, 0x3e, 0xe8, 0x8b, 0x52, 0xbd,
  0x2c, 0xb9, 0xc6, 0xbe, 0xe6, 0x14, 0x0b, 0xbe, 0x50, 0x9b, 0x2d, 0xbe,
  0xec, 0xd1, 0xf7, 0x3d, 0x3a, 0xa6, 0x5d, 0x3e, 0x50, 0xd3, 0x6d, 0x3d,
  0xe0, 0xaf, 0x5a, 0xbd, 0x4d, 0xb1, 0xb2, 0xbe, 0xa9, 0xdf, 0xaa, 0xbe,
  0x4a, 0xf0, 0x2d, 0x3e, 0x47, 0xd8, 0xab, 0x3e, 0xc7, 0x72, 0xc0, 0xbe,
  0xe0, 0xe0, 0x88, 0xbe, 0xcf, 0x1a, 0xc8, 0xbe, 0x00, 0x62, 0xf4, 0x3a,
  0x44, 0x28, 0xcc, 0x3d, 0x31, 0xda, 0xcc, 0x3e, 0x50, 0xa7, 0x19, 0x3d,
  0x94, 0x67, 0xf5, 0x3d, 0xfa, 0xa2, 0x29, 0x3e, 0x81, 0xfa, 0xd3, 0xbe,
  0x69, 0xa1, 0xc9, 0x3e, 0x33, 0xfe, 0x72, 0xbe, 0x71, 0x42, 0xc0, 0xbe,
  0x40, 0x4d, 0x83, 0x3c, 0x70, 0xb8, 0xf2, 0xbc, 0xba, 0x54, 0x2e, 0xbe,
  0xeb, 0x25, 0xa9, 0xbe, 0x00, 0xef, 0xd4, 0x3b, 0x62, 0xf4, 0xbb, 0xbe,
  0xfc, 0xdd, 0xe8, 0x3d, 0x66, 0xf0, 0x78, 0xbe, 0xc6, 0x92, 0x2c, 0x3e,
  0xae, 0x4f, 0x76, 0x3e, 0xf8, 0x59, 0xcd, 0x3e, 0x6c, 0x57, 0xcb, 0x3e,
  0x8f, 0x1d, 0xd0, 0x3e, 0x3b, 0xc9, 0xb1, 0x3e, 0x7e, 0x62, 0x1c, 0x3e,
  0x00, 0xea, 0x9f, 0xbd, 0x19, 0xec, 0x71, 0xbe, 0x26, 0xda, 0x37, 0x3e,
  0x4e, 0xe5, 0xad, 0xbe, 0x6b, 0x29, 0xa9, 0x3e, 0x2b, 0x13, 0x60, 0x3d,
  0xdb, 0x68, 0x8c, 0x3e, 0xa0, 0xe6, 0x05, 0x3c, 0x24, 0x4e, 0xec, 0xbd,
  0xb0, 0x8e, 0xe3, 0x3c, 0xb2, 0xc4, 0x02, 0x3e, 0xa6, 0x80, 0xae, 0xbe,
  0x80, 0xe2, 0x8c, 0x3b, 0x7d, 0x3d, 0xd5, 0x3e, 0x69, 0xa7, 0x44, 0xbe,
  0x19, 0x6d, 0xbe, 0x3e, 0xcc, 0x06, 0xc3, 0xbe, 0x3d, 0x82, 0xcc, 0xbe,
  0x45, 0xee, 0xa4, 0xbe, 0x4c, 0x7d, 0x4e, 0xbe, 0x18, 0x4a, 0x6b, 0xbe,
  0x66, 0x14, 0x2a, 0x3e, 0xdd, 0x5d, 0xd4, 0x3e, 0x67, 0x85, 0xce, 0xbe,
  0x97, 0xb4, 0xcf, 0x3e, 0x7c, 0x8c, 0x4a, 0xbe, 0xaa, 0x64, 0x6f, 0x3e,
  0x2d, 0xaa, 0xf8, 0x3e, 0x5b, 0xf9, 0x73, 0x3d, 0xbc, 0x1d, 0xd0, 0x3d,
  0x94, 0xcb, 0xfc, 0x3d, 0x66, 0xf2, 0xe1, 0x3e, 0x2a, 0xf1, 0x47, 0x3e,
  0xe1, 0x9d, 0xe1, 0xbd, 0x50, 0xed, 0xef, 0xbc, 0xea, 0x8c, 0x86, 0xbe,
  0x7d, 0x75, 0x9e, 0x3e, 0x64, 0x96, 0xa6, 0xbe, 0x95, 0xb1, 0x90, 0x3e,
  0x60, 0xd8, 0xaf, 0xbd, 0x00, 0xd9, 0xe3, 0x3c, 0xab, 0x43, 0x91, 0x3e,
  0xfc, 0xf7, 0xa9, 0xbd, 0x55, 0x75, 0x21, 0xbe, 0xb0, 0x0e, 0x16, 0x3f,
  0xdb, 0x5d, 0xba, 0x3e, 0xb2, 0x75, 0x29, 0x3e, 0xb5, 0x4b, 0xe1, 0x3d,
  0x52, 0xbd, 0x42, 0xbe, 0x18, 0x9d, 0xf9, 0x3e, 0x2c, 0xc9, 0x91, 0xbe,
  0x84, 0x09, 0xf7, 0x3d, 0x75, 0x01, 0xa1, 0x3e, 0x76, 0x59, 0xac, 0xbd,
  0x3e, 0xa5, 0x31, 0x3e, 0x3b, 0xd6, 0xbc, 0x3e, 0x6c, 0xf9, 0xab, 0x3d,
  0x90, 0x6f, 0xef, 0xbc, 0xd0, 0x8a, 0xa2, 0x3c, 0xcb, 0x29, 0x15, 0x3f,
  0xcd, 0xad, 0x80, 0x3d, 0xd8, 0x13, 0xa7, 0xbe, 0x21, 0x8f, 0x72, 0xbe,
  0x13, 0x3d, 0xc1, 0x3e, 0x3a, 0x54, 0x7b, 0x3e, 0xe0, 0x41, 0x05, 0x3f,
  0xfc, 0x13, 0xd6, 0x3d, 0xf0, 0x23, 0x78, 0xbe, 0x86, 0x7f, 0x9a, 0x3e,
  0xbe, 0x72, 0x13, 0x3e, 0xb9, 0x6c, 0x98, 0xbe, 0x92, 0xbb, 0x09, 0x3e,
  0x70, 0x5b, 0x97, 0xbe, 0x4a, 0x6e, 0x12, 0xbe, 0xd6, 0x31, 0x79, 0x3e,
  0xd7, 0x7d, 0x51, 0x3d, 0xa6, 0xf8, 0x05, 0x3d, 0x60, 0x11, 0x9f, 0xbc,
  0x14, 0x69, 0xdd, 0x3d, 0xed, 0x33, 0xe9, 0xbd, 0x6e, 0x51, 0x44, 0xbe,
  0xda, 0x47, 0x93, 0xbd, 0xe0, 0x3f, 0x00, 0x3d, 0x6e, 0x9e, 0x1d, 0x3e,
  0xc8, 0x36, 0x1a, 0x3e, 0x7f, 0xd3, 0x15, 0xbe, 0x64, 0xd6, 0xd8, 0x3d,
  0x66, 0xca, 0x10, 0x3e, 0x9c, 0xa0, 0x04, 0xbe, 0x19, 0x7e, 0xba, 0x3e,
  0xb0, 0x11, 0x62, 0xbe, 0xf9, 0xb5, 0x9b, 0x3e, 0xb2, 0x40, 0x8f, 0xbe,
  0xe0, 0xdd, 0x66, 0xbe, 0xca, 0x54, 0x7f, 0x3e, 0x93, 0x5d, 0x88, 0x3e,
  0x00, 0x9f, 0x40, 0x3c, 0x1d, 0xfb, 0xc1, 0xbe, 0x80, 0x5f, 0xd2, 0xbc,
  0xe0, 0xd6, 0x8d, 0xbe, 0xd6, 0x15, 0x75, 0xbe, 0xfc, 0x0f, 0xdc, 0xbd,
  0xee, 0x13, 0x76, 0x3e, 0xe2, 0x38, 0x3a, 0xbe, 0x23, 0x61, 0x93, 0x3e,
  0x71, 0xab, 0xb2, 0x3e, 0xab, 0xc1, 0x8f, 0x3e, 0x57, 0x69, 0x86, 0x3e,
  0x5d, 0x11, 0xb3, 0xbe, 0x38, 0xf2, 0x1f, 0xbd, 0x81, 0xb5, 0xda, 0xbe,
  0x49, 0x24, 0x83, 0xbe, 0x7d, 0xe0, 0x8c, 0x3e, 0xd7, 0x7b, 0xb5, 0xbe,
  0x1a, 0xf5, 0x3e, 0xbe, 0x94, 0x79, 0x1e, 0xbe, 0x31, 0x3f, 0x89, 0xbe,
  0xe6, 0xd4, 0xc6, 0xbe, 0x81, 0xbc, 0xad, 0x3e, 0xd4, 0xde, 0x17, 0xbe,
  0x96, 0x60, 0x43, 0x3e, 0xec, 0x02, 0xd3, 0x3d, 0x6d, 0x7a, 0x9c, 0x3e,
  0xa7, 0x10, 0x36, 0xbe, 0xa4, 0x09, 0xde, 0xbd, 0xd9, 0x5e, 0x87, 0x3e,
  0x64, 0x01, 0xbe, 0x3d, 0x7f, 0x7d, 0x52, 0xbe, 0xf7, 0x15, 0xbb, 0xbe,
  0x45, 0xaa, 0xe3, 0xbe, 0x8c, 0xff, 0x80, 0xbd, 0x00, 0x16, 0xb0, 0x3a,
  0x1e, 0x90, 0x86, 0x3e, 0x96, 0x59, 0x1b, 0xbe, 0x13, 0x1a, 0xb7, 0x3e,
  0x76, 0xc2, 0xd4, 0xbe, 0xac, 0x99, 0xc5, 0xbd, 0x7a, 0x37, 0x43, 0x3e,
  0x4f, 0x65, 0xa3, 0x3e, 0xb6, 0x74, 0x04, 0x3e, 0x3c, 0x44, 0x9d, 0xbe,
  0xa8, 0x36, 0x0f, 0xbd, 0x4c, 0x05, 0xaa, 0x3d, 0xf0, 0x3b, 0x20, 0xbd,
  0xe0, 0x09, 0xb4, 0x3c, 0xa4, 0x49, 0xbd, 0xbe, 0xcf, 0xc3, 0xc6, 0x3e,
  0xb8, 0x99, 0x50, 0xbd, 0x4a, 0xe0, 0x31, 0xbe, 0x85, 0xb9, 0x89, 0x3e,
  0x33, 0xd1, 0x8a, 0x3e, 0x07, 0x53, 0x9d, 0x3e, 0x30, 0xee, 0x29, 0xbd,
  0x75, 0x6f, 0xc4, 0xbe, 0x02, 0x5b, 0x09, 0x3e, 0x65, 0x54, 0x2d, 0x3e,
  0xe8, 0xe6, 0x2c, 0xbe, 0x09, 0x85, 0x3e, 0xbe, 0x71, 0x94, 0xd7, 0xbe,
  0xd8, 0xde, 0x4a, 0x3d, 0x96, 0xd7, 0x6a, 0x3e, 0x44, 0x02, 0xc8, 0xbe,
  0xac, 0x9b, 0xae, 0xbe, 0xc4, 0xe5, 0xa7, 0x3d, 0x20, 0x53, 0x72, 0x3d,
  0x81, 0x5e, 0x34, 0xbe, 0xc4, 0x5a, 0xca, 0xbd, 0xf8, 0x2c, 0x64, 0x3d,
  0x10, 0x85, 0xe9, 0xbc, 0x00, 0x9a, 0x00, 0x3a, 0x48, 0xbb, 0xb0, 0xbd,
  0xe0, 0x93, 0xae, 0x3c, 0xd9, 0x9d, 0xd7, 0xbe, 0xd8, 0x19, 0x32, 0xbd,
  0xd0, 0xfc, 0x04, 0xbe, 0x60, 0x3b, 0xe7, 0xbd, 0x9d, 0x93, 0xbf, 0xbe,
  0xe2, 0xef, 0x7c, 0x3e, 0x06, 0x1e, 0x28, 0x3e, 0x22, 0x80, 0x51, 0x3e,
  0x33, 0xec, 0x97, 0xbe, 0x5c, 0x47, 0x9f, 0x3d, 0x58, 0x3e, 0x87, 0xbd,
  0x62, 0x4c, 0xcc, 0xbe, 0x67, 0x22, 0xc6, 0x3e, 0xca, 0xfe, 0xff, 0xff,
  0x04, 0x00, 0x00, 0x00, 0x40, 0x00, 0x00, 0x00, 0x00, 0x00, 0x00, 0x00,
  0x00, 0x00, 0x00, 0x00, 0xc4, 0x26, 0xba, 0xbb, 0xcf, 0xe3, 0x28, 0xbc,
  0x00, 0x00, 0x00, 0x00, 0x00, 0x00, 0x00, 0x00, 0xb4, 0x60, 0x8f, 0xbd,
  0x00, 0x00, 0x00, 0x00, 0xb3, 0x9e, 0x02, 0xbe, 0x00, 0x00, 0x00, 0x00,
  0x00, 0x00, 0x00, 0x00, 0xe5, 0xb1, 0xdf, 0xba, 0xd3, 0x25, 0x87, 0xbc,
  0x00, 0x00, 0x00, 0x00, 0x00, 0x00, 0x00, 0x00, 0x00, 0x00, 0x00, 0x00,
  0xb8, 0xfa, 0xff, 0xff, 0x1a, 0xff, 0xff, 0xff, 0x04, 0x00, 0x00, 0x00,
  0x40, 0x00, 0x00, 0x00, 0xc4, 0xaf, 0x14, 0xbf, 0x06, 0xa8, 0xd1, 0xbe,
  0x09, 0xbf, 0x29, 0x3f, 0xe1, 0xbc, 0xb3, 0x3e, 0x10, 0x58, 0x52, 0xbd,
  0xb8, 0x24, 0x19, 0xbe, 0x6e, 0x4c, 0x89, 0x3e, 0x5c, 0x34, 0xb1, 0xbe,
  0x6f, 0xfe, 0x09, 0x3f, 0x00, 0x91, 0xb8, 0xbb, 0xca, 0x94, 0x66, 0xbe,
  0xd1, 0x0d, 0x3d, 0x3f, 0xa9, 0xc4, 0x63, 0x3e, 0x89, 0x78, 0xe5, 0xbe,
  0xe6, 0x10, 0xf1, 0xbe, 0xba, 0x86, 0x89, 0xbe, 0x66, 0xff, 0xff, 0xff,
  0x04, 0x00, 0x00, 0x00, 0x40, 0x00, 0x00, 0x00, 0x99, 0x0f, 0x29, 0xbc,
  0x00, 0x00, 0x00, 0x00, 0x00, 0x00, 0x00, 0x00, 0x00, 0x00, 0x00, 0x00,
  0xb2, 0x84, 0x2d, 0xbc, 0x00, 0x00, 0x00, 0x00, 0xea, 0x25, 0x97, 0xbd,
  0x2c, 0xe6, 0x49, 0xba, 0x99, 0x1a, 0x15, 0xbc, 0x5f, 0xe7, 0xa6, 0xbd,
  0x00, 0x00, 0x00, 0x00, 0x00, 0x00, 0x00, 0x00, 0x17, 0x78, 0xce, 0x39,
  0x00, 0x00, 0x00, 0x00, 0x46, 0x57, 0x21, 0x3d, 0x00, 0x00, 0x00, 0x00,
  0xb2, 0xff, 0xff, 0xff, 0x04, 0x00, 0x00, 0x00, 0x40, 0x00, 0x00, 0x00,
  0x69, 0xc0, 0xcc, 0x3e, 0xf4, 0x21, 0x69, 0x3e, 0x10, 0xa5, 0x55, 0x3e,
  0xe4, 0x68, 0x95, 0x3e, 0x61, 0x08, 0x0e, 0x3f, 0xe8, 0x33, 0x32, 0x3e,
  0x99, 0x63, 0x08, 0x3e, 0x83, 0x2d, 0x2b, 0x3e, 0x9f, 0x29, 0x70, 0x3e,
  0xaf, 0x9e, 0xe3, 0xbd, 0x14, 0x42, 0x6a, 0x3e, 0x18, 0xdb, 0xdd, 0x3e,
  0xdc, 0x4a, 0xf5, 0x3e, 0x6c, 0xb7, 0x03, 0x3e, 0x54, 0x30, 0x1b, 0x3f,
  0xe8, 0x2d, 0xb4, 0xbe, 0x00, 0x00, 0x06, 0x00, 0x08, 0x00, 0x04, 0x00,
  0x06, 0x00, 0x00, 0x00, 0x04, 0x00, 0x00, 0x00, 0x04, 0x00, 0x00, 0x00,
  0x1b, 0xe0, 0x36, 0xbc, 0xb8, 0xfb, 0xff, 0xff, 0x0f, 0x00, 0x00, 0x00,
  0x54, 0x4f, 0x43, 0x4f, 0x20, 0x43, 0x6f, 0x6e, 0x76, 0x65, 0x72, 0x74,
  0x65, 0x64, 0x2e, 0x00, 0x01, 0x00, 0x00, 0x00, 0x10, 0x00, 0x00, 0x00,
  0x0c, 0x00, 0x14, 0x00, 0x04, 0x00, 0x08, 0x00, 0x0c, 0x00, 0x10, 0x00,
  0x0c, 0x00, 0x00, 0x00, 0xf0, 0x00, 0x00, 0x00, 0xe4, 0x00, 0x00, 0x00,
  0xd8, 0x00, 0x00, 0x00, 0x04, 0x00, 0x00, 0x00, 0x03, 0x00, 0x00, 0x00,
  0x90, 0x00, 0x00, 0x00, 0x48, 0x00, 0x00, 0x00, 0x04, 0x00, 0x00, 0x00,
  0xce, 0xff, 0xff, 0xff, 0x00, 0x00, 0x00, 0x08, 0x18, 0x00, 0x00, 0x00,
  0x0c, 0x00, 0x00, 0x00, 0x04, 0x00, 0x00, 0x00, 0x1c, 0xfc, 0xff, 0xff,
  0x01, 0x00, 0x00, 0x00, 0x00, 0x00, 0x00, 0x00, 0x03, 0x00, 0x00, 0x00,
  0x07, 0x00, 0x00, 0x00, 0x08, 0x00, 0x00, 0x00, 0x09, 0x00, 0x00, 0x00,
  0x00, 0x00, 0x0e, 0x00, 0x14, 0x00, 0x00, 0x00, 0x08, 0x00, 0x0c, 0x00,
  0x07, 0x00, 0x10, 0x00, 0x0e, 0x00, 0x00, 0x00, 0x00, 0x00, 0x00, 0x08,
  0x1c, 0x00, 0x00, 0x00, 0x10, 0x00, 0x00, 0x00, 0x04, 0x00, 0x00, 0x00,
  0xba, 0xff, 0xff, 0xff, 0x00, 0x00, 0x00, 0x01, 0x01, 0x00, 0x00, 0x00,
  0x07, 0x00, 0x00, 0x00, 0x03, 0x00, 0x00, 0x00, 0x04, 0x00, 0x00, 0x00,
  0x05, 0x00, 0x00, 0x00, 0x06, 0x00, 0x00, 0x00, 0x00, 0x00, 0x0e, 0x00,
  0x16, 0x00, 0x00, 0x00, 0x08, 0x00, 0x0c, 0x00, 0x07, 0x00, 0x10, 0x00,
  0x0e, 0x00, 0x00, 0x00, 0x00, 0x00, 0x00, 0x08, 0x24, 0x00, 0x00, 0x00,
  0x18, 0x00, 0x00, 0x00, 0x0c, 0x00, 0x00, 0x00, 0x00, 0x00, 0x06, 0x00,
  0x08, 0x00, 0x07, 0x00, 0x06, 0x00, 0x00, 0x00, 0x00, 0x00, 0x00, 0x01,
  0x01, 0x00, 0x00, 0x00, 0x04, 0x00, 0x00, 0x00, 0x03, 0x00, 0x00, 0x00,
  0x01, 0x00, 0x00, 0x00, 0x02, 0x00, 0x00, 0x00, 0x03, 0x00, 0x00, 0x00,
  0x01, 0x00, 0x00, 0x00, 0x00, 0x00, 0x00, 0x00, 0x01, 0x00, 0x00, 0x00,
  0x01, 0x00, 0x00, 0x00, 0x0a, 0x00, 0x00, 0x00, 0x10, 0x03, 0x00, 0x00,
  0xa4, 0x02, 0x00, 0x00, 0x40, 0x02, 0x00, 0x00, 0xf4, 0x01, 0x00, 0x00,
  0xac, 0x01, 0x00, 0x00, 0x48, 0x01, 0x00, 0x00, 0xfc, 0x00, 0x00, 0x00,
  0xb4, 0x00, 0x00, 0x00, 0x50, 0x00, 0x00, 0x00, 0x04, 0x00, 0x00, 0x00,
  0x26, 0xfd, 0xff, 0xff, 0x3c, 0x00, 0x00, 0x00, 0x01, 0x00, 0x00, 0x00,
  0x0c, 0x00, 0x00, 0x00, 0x04, 0x00, 0x00, 0x00, 0x18, 0xfd, 0xff, 0xff,
  0x20, 0x00, 0x00, 0x00, 0x73, 0x65, 0x71, 0x75, 0x65, 0x6e, 0x74, 0x69,
  0x61, 0x6c, 0x5f, 0x31, 0x2f, 0x64, 0x65, 0x6e, 0x73, 0x65, 0x5f, 0x35,
  0x2f, 0x4d, 0x61, 0x74, 0x4d, 0x75, 0x6c, 0x5f, 0x62, 0x69, 0x61, 0x73,
  0x00, 0x00, 0x00, 0x00, 0x01, 0x00, 0x00, 0x00, 0x01, 0x00, 0x00, 0x00,
  0x6e, 0xfd, 0xff, 0xff, 0x50, 0x00, 0x00, 0x00, 0x02, 0x00, 0x00, 0x00,
  0x0c, 0x00, 0x00, 0x00, 0x04, 0x00, 0x00, 0x00, 0x60, 0xfd, 0xff, 0xff,
  0x34, 0x00, 0x00, 0x00, 0x73, 0x65, 0x71, 0x75, 0x65, 0x6e, 0x74, 0x69,
  0x61, 0x6c, 0x5f, 0x31, 0x2f, 0x64, 0x65, 0x6e, 0x73, 0x65, 0x5f, 0x35,
  0x2f, 0x4d, 0x61, 0x74, 0x4d, 0x75, 0x6c, 0x2f, 0x52, 0x65, 0x61, 0x64,
  0x56, 0x61, 0x72, 0x69, 0x61, 0x62, 0x6c, 0x65, 0x4f, 0x70, 0x2f, 0x74,
  0x72, 0x61, 0x6e, 0x73, 0x70, 0x6f, 0x73, 0x65, 0x00, 0x00, 0x00, 0x00,
  0x02, 0x00, 0x00, 0x00, 0x01, 0x00, 0x00, 0x00, 0x10, 0x00, 0x00, 0x00,
  0xce, 0xfd, 0xff, 0xff, 0x34, 0x00, 0x00, 0x00, 0x09, 0x00, 0x00, 0x00,
  0x0c, 0x00, 0x00, 0x00, 0x04, 0x00, 0x00, 0x00, 0xc0, 0xfd, 0xff, 0xff,
  0x19, 0x00, 0x00, 0x00, 0x73, 0x65, 0x71, 0x75, 0x65, 0x6e, 0x74, 0x69,
  0x61, 0x6c, 0x5f, 0x31, 0x2f, 0x64, 0x65, 0x6e, 0x73, 0x65, 0x5f, 0x34,
  0x2f, 0x52, 0x65, 0x6c, 0x75, 0x00, 0x00, 0x00, 0x02, 0x00, 0x00, 0x00,
  0x01, 0x00, 0x00, 0x00, 0x10, 0x00, 0x00, 0x00, 0x12, 0xfe, 0xff, 0xff,
  0x3c, 0x00, 0x00, 0x00, 0x03, 0x00, 0x00, 0x00, 0x0c, 0x00, 0x00, 0x00,
  0x04, 0x00, 0x00, 0x00, 0x04, 0xfe, 0xff, 0xff, 0x20, 0x00, 0x00, 0x00,
  0x73, 0x65, 0x71, 0x75, 0x65, 0x6e, 0x74, 0x69, 0x61, 0x6c, 0x5f, 0x31,
  0x2f, 0x64, 0x65, 0x6e, 0x73, 0x65, 0x5f, 0x34, 0x2f, 0x4d, 0x61, 0x74,
  0x4d, 0x75, 0x6c, 0x5f, 0x62, 0x69, 0x61, 0x73, 0x00, 0x00, 0x00, 0x00,
  0x01, 0x00, 0x00, 0x00, 0x10, 0x00, 0x00, 0x00, 0x5a, 0xfe, 0xff, 0xff,
  0x50, 0x00, 0x00, 0x00, 0x07, 0x00, 0x00, 0x00, 0x0c, 0x00, 0x00, 0x00,
  0x04, 0x00, 0x00, 0x00, 0x4c, 0xfe, 0xff, 0xff, 0x34, 0x00, 0x00, 0x00,
  0x73, 0x65, 0x71, 0x75, 0x65, 0x6e, 0x74, 0x69, 0x61, 0x6c, 0x5f, 0x31,
  0x2f, 0x64, 0x65, 0x6e, 0x73, 0x65, 0x5f, 0x34, 0x2f, 0x4d, 0x61, 0x74,
  0x4d, 0x75, 0x6c, 0x2f, 0x52, 0x65, 0x61, 0x64, 0x56, 0x61, 0x72, 0x69,
  0x61, 0x62, 0x6c, 0x65, 0x4f, 0x70, 0x2f, 0x74, 0x72, 0x61, 0x6e, 0x73,
  0x70, 0x6f, 0x73, 0x65, 0x00, 0x00, 0x00, 0x00, 0x02, 0x00, 0x00, 0x00,
  0x10, 0x00, 0x00, 0x00, 0x10, 0x00, 0x00, 0x00, 0xba, 0xfe, 0xff, 0xff,
  0x34, 0x00, 0x00, 0x00, 0x0a, 0x00, 0x00, 0x00, 0x0c, 0x00, 0x00, 0x00,
  0x04, 0x00, 0x00, 0x00, 0xac, 0xfe, 0xff, 0xff, 0x19, 0x00, 0x00, 0x00,
  0x73, 0x65, 0x71, 0x75, 0x65, 0x6e, 0x74, 0x69, 0x61, 0x6c, 0x5f, 0x31,
  0x2f, 0x64, 0x65, 0x6e, 0x73, 0x65, 0x5f, 0x33, 0x2f, 0x52, 0x65, 0x6c,
  0x75, 0x00, 0x00, 0x00, 0x02, 0x00, 0x00, 0x00, 0x01, 0x00, 0x00, 0x00,
  0x10, 0x00, 0x00, 0x00, 0xfe, 0xfe, 0xff, 0xff, 0x3c, 0x00, 0x00, 0x00,
  0x06, 0x00, 0x00, 0x00, 0x0c, 0x00, 0x00, 0x00, 0x04, 0x00, 0x00, 0x00,
  0xf0, 0xfe, 0xff, 0xff, 0x20, 0x00, 0x00, 0x00, 0x73, 0x65, 0x71, 0x75,
  0x65, 0x6e, 0x74, 0x69, 0x61, 0x6c, 0x5f, 0x31, 0x2f, 0x64, 0x65, 0x6e,
  0x73, 0x65, 0x5f, 0x33, 0x2f, 0x4d, 0x61, 0x74, 0x4d, 0x75, 0x6c, 0x5f,
  0x62, 0x69, 0x61, 0x73, 0x00, 0x00, 0x00, 0x00, 0x01, 0x00, 0x00, 0x00,
  0x10, 0x00, 0x00, 0x00, 0x46, 0xff, 0xff, 0xff, 0x50, 0x00, 0x00, 0x00,
  0x04, 0x00, 0x00, 0x00, 0x0c, 0x00, 0x00, 0x00, 0x04, 0x00, 0x00, 0x00,
  0x38, 0xff, 0xff, 0xff, 0x34, 0x00, 0x00, 0x00, 0x73, 0x65, 0x71, 0x75,
  0x65, 0x6e, 0x74, 0x69, 0x61, 0x6c, 0x5f, 0x31, 0x2f, 0x64, 0x65, 0x6e,
  0x73, 0x65, 0x5f, 0x33, 0x2f, 0x4d, 0x61, 0x74, 0x4d, 0x75, 0x6c, 0x2f,
  0x52, 0x65, 0x61, 0x64, 0x56, 0x61, 0x72, 0x69, 0x61, 0x62, 0x6c, 0x65,
  0x4f, 0x70, 0x2f, 0x74, 0x72, 0x61, 0x6e, 0x73, 0x70, 0x6f, 0x73, 0x65,
  0x00, 0x00, 0x00, 0x00, 0x02, 0x00, 0x00, 0x00, 0x10, 0x00, 0x00, 0x00,
  0x01, 0x00, 0x00, 0x00, 0xa6, 0xff, 0xff, 0xff, 0x48, 0x00, 0x00, 0x00,
  0x08, 0x00, 0x00, 0x00, 0x2c, 0x00, 0x00, 0x00, 0x0c, 0x00, 0x00, 0x00,
  0x08, 0x00, 0x0c, 0x00, 0x04, 0x00, 0x08, 0x00, 0x08, 0x00, 0x00, 0x00,
  0x10, 0x00, 0x00, 0x00, 0x04, 0x00, 0x00, 0x00, 0x01, 0x00, 0x00, 0x00,
  0x00, 0x00, 0x7f, 0x43, 0x01, 0x00, 0x00, 0x00, 0x00, 0x00, 0x00, 0x00,
  0x0d, 0x00, 0x00, 0x00, 0x64, 0x65, 0x6e, 0x73, 0x65, 0x5f, 0x33, 0x5f,
  0x69, 0x6e, 0x70, 0x75, 0x74, 0x00, 0x00, 0x00, 0x02, 0x00, 0x00, 0x00,
  0x01, 0x00, 0x00, 0x00, 0x01, 0x00, 0x00, 0x00, 0x00, 0x00, 0x0e, 0x00,
  0x14, 0x00, 0x04, 0x00, 0x00, 0x00, 0x08, 0x00, 0x0c, 0x00, 0x10, 0x00,
  0x0e, 0x00, 0x00, 0x00, 0x28, 0x00, 0x00, 0x00, 0x05, 0x00, 0x00, 0x00,
  0x10, 0x00, 0x00, 0x00, 0x08, 0x00, 0x00, 0x00, 0x04, 0x00, 0x04, 0x00,
  0x04, 0x00, 0x00, 0x00, 0x08, 0x00, 0x00, 0x00, 0x49, 0x64, 0x65, 0x6e,
  0x74, 0x69, 0x74, 0x79, 0x00, 0x00, 0x00, 0x00, 0x02, 0x00, 0x00, 0x00,
  0x01, 0x00, 0x00, 0x00, 0x01, 0x00, 0x00, 0x00, 0x01, 0x00, 0x00, 0x00,
  0x10, 0x00, 0x00, 0x00, 0x00, 0x00, 0x0a, 0x00, 0x0c, 0x00, 0x07, 0x00,
  0x00, 0x00, 0x08, 0x00, 0x0a, 0x00, 0x00, 0x00, 0x00, 0x00, 0x00, 0x09,
  0x03, 0x00, 0x00, 0x00
};
unsigned int growth_model_quantized_tflite_len = 2716;
