/* Copyright 2019 The TensorFlow Authors. All Rights Reserved.

Licensed under the Apache License, Version 2.0 (the "License");
you may not use this file except in compliance with the License.
You may obtain a copy of the License at

    http://www.apache.org/licenses/LICENSE-2.0

Unless required by applicable law or agreed to in writing, software
distributed under the License is distributed on an "AS IS" BASIS,
WITHOUT WARRANTIES OR CONDITIONS OF ANY KIND, either express or implied.
See the License for the specific language governing permissions and
limitations under the License.
==============================================================================*/


#include "greenhouse_model_data.h"

// We need to keep the data array aligned on some architectures.
#ifdef __has_attribute
#define HAVE_ATTRIBUTE(x) __has_attribute(x)
#else
#define HAVE_ATTRIBUTE(x) 0
#endif
#if HAVE_ATTRIBUTE(aligned) || (defined(__GNUC__) && !defined(__clang__))
#define DATA_ALIGN_ATTRIBUTE __attribute__((aligned(4)))
#else
#define DATA_ALIGN_ATTRIBUTE
#endif

const unsigned char g_greenhouse_model_data[] DATA_ALIGN_ATTRIBUTE = {
  0x1c, 0x00, 0x00, 0x00, 0x54, 0x46, 0x4c, 0x33, 0x00, 0x00, 0x12, 0x00,
  0x1c, 0x00, 0x04, 0x00, 0x08, 0x00, 0x0c, 0x00, 0x10, 0x00, 0x14, 0x00,
  0x00, 0x00, 0x18, 0x00, 0x12, 0x00, 0x00, 0x00, 0x03, 0x00, 0x00, 0x00,
  0x5c, 0x0b, 0x00, 0x00, 0x88, 0x06, 0x00, 0x00, 0x70, 0x06, 0x00, 0x00,
  0x34, 0x00, 0x00, 0x00, 0x04, 0x00, 0x00, 0x00, 0x01, 0x00, 0x00, 0x00,
  0x04, 0x00, 0x00, 0x00, 0x4c, 0xf5, 0xff, 0xff, 0x08, 0x00, 0x00, 0x00,
  0x0c, 0x00, 0x00, 0x00, 0x13, 0x00, 0x00, 0x00, 0x6d, 0x69, 0x6e, 0x5f,
  0x72, 0x75, 0x6e, 0x74, 0x69, 0x6d, 0x65, 0x5f, 0x76, 0x65, 0x72, 0x73,
  0x69, 0x6f, 0x6e, 0x00, 0x0d, 0x00, 0x00, 0x00, 0x30, 0x06, 0x00, 0x00,
  0x1c, 0x06, 0x00, 0x00, 0xc4, 0x05, 0x00, 0x00, 0x74, 0x05, 0x00, 0x00,
  0x64, 0x01, 0x00, 0x00, 0x94, 0x00, 0x00, 0x00, 0x8c, 0x00, 0x00, 0x00,
  0x84, 0x00, 0x00, 0x00, 0x7c, 0x00, 0x00, 0x00, 0x2c, 0x00, 0x00, 0x00,
  0x24, 0x00, 0x00, 0x00, 0x1c, 0x00, 0x00, 0x00, 0x04, 0x00, 0x00, 0x00,
  0x1a, 0xfa, 0xff, 0xff, 0x04, 0x00, 0x00, 0x00, 0x06, 0x00, 0x00, 0x00,
  0x31, 0x2e, 0x31, 0x34, 0x2e, 0x30, 0x00, 0x00, 0x54, 0xf5, 0xff, 0xff,
  0x58, 0xf5, 0xff, 0xff, 0x36, 0xfa, 0xff, 0xff, 0x04, 0x00, 0x00, 0x00,
  0x40, 0x00, 0x00, 0x00, 0x15, 0xa5, 0x18, 0x3f, 0x65, 0xd9, 0x1a, 0x3f,
  0x1a, 0x78, 0xda, 0xbd, 0xdc, 0x22, 0xc8, 0xbc, 0xdb, 0x1c, 0x14, 0x3f,
  0x00, 0x00, 0x00, 0x00, 0xfe, 0x9f, 0x03, 0x3f, 0x00, 0x00, 0x00, 0x00,
  0x00, 0x00, 0x00, 0x00, 0xbf, 0x5b, 0x08, 0x3f, 0x00, 0x00, 0x00, 0x00,
  0xf1, 0x08, 0xde, 0xbd, 0x54, 0x88, 0xc4, 0xbd, 0x70, 0xe3, 0xa3, 0xbb,
  0xf9, 0xcc, 0x6b, 0xbc, 0x00, 0x00, 0x00, 0x00, 0xa8, 0xf5, 0xff, 0xff,
  0xac, 0xf5, 0xff, 0xff, 0xb0, 0xf5, 0xff, 0xff, 0x8e, 0xfa, 0xff, 0xff,
  0x04, 0x00, 0x00, 0x00, 0xc0, 0x00, 0x00, 0x00, 0x07, 0x14, 0x14, 0x3f,
  0x3c, 0x79, 0x10, 0xbf, 0x55, 0x32, 0xc4, 0x3e, 0x0a, 0xb3, 0x18, 0x3f,
  0x77, 0xb8, 0x13, 0xbf, 0xb4, 0x9d, 0xcd, 0x3e, 0x68, 0x5f, 0xc8, 0x3b,
  0x2c, 0xa4, 0x33, 0x3f, 0xd1, 0x18, 0x4c, 0x3e, 0x02, 0xf0, 0xa5, 0x3c,
  0xf0, 0x0f, 0x70, 0xbd, 0x7c, 0x6d, 0xbe, 0x3c, 0x42, 0x7d, 0x0c, 0x3f,
  0x59, 0x7e, 0x0d, 0xbf, 0x1e, 0xdb, 0xbe, 0x3e, 0x70, 0xd9, 0x43, 0xbd,
  0xed, 0x68, 0xc7, 0xbc, 0x46, 0x4d, 0x10, 0xbd, 0x95, 0x24, 0x18, 0x3f,
  0x40, 0x21, 0x19, 0x3f, 0x33, 0xe8, 0x0c, 0x3f, 0xd6, 0xed, 0x0b, 0xbd,
  0xc0, 0x38, 0x0f, 0x3c, 0x4d, 0xd3, 0xad, 0xbc, 0x40, 0x93, 0xb6, 0x3a,
  0x36, 0xa6, 0x03, 0xbd, 0xea, 0x10, 0x0d, 0xbd, 0xf9, 0x94, 0x16, 0x3f,
  0x33, 0x83, 0x16, 0x3f, 0x16, 0x26, 0x21, 0x3f, 0xe4, 0x0a, 0x08, 0xbd,
  0xc6, 0x32, 0x11, 0xbd, 0xd3, 0xeb, 0xb7, 0xbc, 0x76, 0xd7, 0xa1, 0x3b,
  0xbd, 0xfc, 0x31, 0x3f, 0x86, 0xa0, 0x64, 0x3e, 0xb5, 0x82, 0x01, 0xbd,
  0xc1, 0xf9, 0x2d, 0x3f, 0x6b, 0x0c, 0x89, 0x3e, 0x48, 0x4a, 0xbf, 0x3b,
  0xf2, 0x2b, 0x4c, 0xbd, 0x04, 0xb6, 0x51, 0xbc, 0x3b, 0x4e, 0xdf, 0x3d,
  0x5a, 0xb7, 0x2c, 0x3f, 0xd6, 0x44, 0x8d, 0x3e, 0xfa, 0x0a, 0xbd, 0xbc,
  0xe8, 0x91, 0x95, 0x3b, 0x50, 0xcd, 0xad, 0xbb, 0x5a, 0xfb, 0xff, 0xff,
  0x04, 0x00, 0x00, 0x00, 0x00, 0x04, 0x00, 0x00, 0xac, 0x21, 0x5b, 0x3f,
  0x6f, 0xff, 0x57, 0x3f, 0xb4, 0xfa, 0x14, 0xbf, 0xb9, 0x3d, 0x2a, 0xbd,
  0xe6, 0x93, 0x45, 0x3f, 0x13, 0x94, 0x4a, 0x3d, 0x60, 0x8a, 0xa6, 0x3e,
  0xd0, 0x62, 0x4a, 0x3b, 0xae, 0x30, 0xd4, 0x3c, 0x77, 0x16, 0xb9, 0x3e,
  0x50, 0xfc, 0x32, 0xbd, 0xdc, 0xfd, 0x08, 0xbf, 0x8c, 0xd5, 0x03, 0xbf,
  0xdc, 0xa0, 0x6e, 0x3c, 0x25, 0x04, 0x68, 0xbe, 0xc6, 0x09, 0x19, 0xbd,
  0x6d, 0x5f, 0xbb, 0xbc, 0xa3, 0x89, 0x06, 0x3d, 0x89, 0xd9, 0xa5, 0x3c,
  0x46, 0xa0, 0x02, 0xbd, 0x47, 0xbd, 0xd5, 0xbc, 0xc3, 0x90, 0x2a, 0x3d,
  0xb2, 0xb6, 0x92, 0xbc, 0x9d, 0x45, 0x3c, 0x3d, 0x23, 0x3f, 0x2e, 0x3d,
  0x3c, 0x9c, 0x31, 0xbd, 0x82, 0xaa, 0xc2, 0x3c, 0xda, 0x43, 0x15, 0x3d,
  0x6b, 0xc5, 0x21, 0xbd, 0x68, 0xdc, 0x21, 0xbc, 0x5a, 0x08, 0xfb, 0xba,
  0x80, 0x00, 0xa7, 0xbb, 0x6d, 0x6d, 0xfe, 0xbc, 0xc2, 0x91, 0xf6, 0x3c,
  0x6f, 0x5a, 0x49, 0xbd, 0xb3, 0xe6, 0x32, 0xbd, 0xae, 0x47, 0x9a, 0x3c,
  0x2e, 0xad, 0xee, 0x3c, 0x6f, 0x9f, 0x06, 0xbd, 0x0d, 0x26, 0x2f, 0xbd,
  0x99, 0x43, 0x3c, 0x3d, 0x12, 0xd6, 0x9f, 0x3a, 0x87, 0x06, 0x38, 0xbd,
  0x61, 0x40, 0x34, 0x3d, 0xc3, 0x2e, 0x10, 0xbd, 0xc0, 0xd6, 0x85, 0xbc,
  0x33, 0x51, 0x2c, 0x3d, 0x13, 0x2b, 0xf2, 0xbc, 0x2c, 0xe5, 0x1d, 0x3d,
  0xc8, 0xd0, 0x55, 0xbd, 0x8e, 0xe0, 0x0c, 0x3c, 0x9d, 0x58, 0xf6, 0x3a,
  0x44, 0x39, 0x0f, 0x3d, 0x98, 0x60, 0xd1, 0x3b, 0x2f, 0x9a, 0xe7, 0xbc,
  0x20, 0x53, 0x4b, 0xbd, 0x00, 0x75, 0xfd, 0x39, 0x31, 0x35, 0xb3, 0xbc,
  0x00, 0x48, 0xe2, 0xbc, 0xd2, 0x09, 0xd5, 0xbb, 0x63, 0x13, 0x2e, 0x3d,
  0x30, 0xa8, 0x50, 0xbb, 0x6b, 0xb2, 0x13, 0xbd, 0x84, 0xf1, 0x74, 0x3c,
  0x7d, 0x47, 0xab, 0x3c, 0x90, 0x74, 0xf3, 0x3c, 0x4d, 0x87, 0x0a, 0x3d,
  0x31, 0x78, 0xf9, 0xbb, 0xcb, 0x14, 0x8b, 0xbc, 0xa1, 0xd7, 0x29, 0x3d,
  0x2b, 0x31, 0xfb, 0x3c, 0x4d, 0xb4, 0x2b, 0xbd, 0xa6, 0x23, 0x0f, 0xbd,
  0xa7, 0x8b, 0x61, 0xbd, 0x2d, 0xe3, 0xa2, 0xbc, 0x66, 0x00, 0x69, 0xbc,
  0xe0, 0x69, 0x38, 0xbc, 0x9a, 0x99, 0xb6, 0xbc, 0xd0, 0xc8, 0x81, 0xbc,
  0x9c, 0x2e, 0x70, 0x3c, 0xba, 0x22, 0x1a, 0xbd, 0x5a, 0x45, 0x26, 0xbd,
  0xb3, 0xce, 0x2b, 0xbd, 0x22, 0x01, 0xd9, 0x3c, 0xcc, 0x25, 0x3d, 0x3c,
  0x4c, 0x73, 0x21, 0xbc, 0x62, 0xe9, 0x07, 0x3d, 0xa6, 0x18, 0xf1, 0x3c,
  0x04, 0x2c, 0x62, 0x3c, 0xe2, 0x21, 0x0d, 0xbb, 0x6d, 0x1d, 0xe2, 0xbc,
  0xaa, 0x02, 0x0f, 0xbd, 0x1d, 0xcd, 0xce, 0xbc, 0x79, 0x5c, 0x48, 0x3d,
  0xc9, 0x15, 0xc9, 0xbc, 0xc4, 0x4b, 0x0b, 0xbd, 0x18, 0x84, 0x98, 0xbb,
  0x00, 0xc1, 0x4d, 0xbc, 0xe2, 0x2b, 0xbe, 0x3c, 0x93, 0x7d, 0x20, 0xbd,
  0x06, 0x5d, 0x29, 0xbd, 0x9c, 0xaf, 0x5c, 0x3c, 0xeb, 0xd9, 0xc8, 0x3b,
  0x27, 0x49, 0x4b, 0xbd, 0xe8, 0xf7, 0x28, 0xbc, 0x93, 0x47, 0x5d, 0xbc,
  0x42, 0xe9, 0xc3, 0x3c, 0x13, 0xfa, 0x6d, 0xb9, 0x0f, 0xd7, 0xe2, 0x3c,
  0x7a, 0xd7, 0x81, 0xbc, 0xea, 0x9c, 0x74, 0xbd, 0x00, 0xbf, 0x3a, 0x3b,
  0xcc, 0xc2, 0x8e, 0xbc, 0x3a, 0x48, 0x06, 0xbd, 0x4d, 0xdf, 0x2b, 0x3c,
  0xb0, 0xe6, 0x35, 0xbd, 0x18, 0x08, 0x0d, 0xbc, 0x27, 0x1d, 0x16, 0x3d,
  0xc2, 0x8f, 0x6b, 0x3c, 0x66, 0x00, 0x19, 0xbd, 0x07, 0xfa, 0xee, 0xbc,
  0x1a, 0x72, 0x62, 0xbc, 0x93, 0x6a, 0x47, 0xbd, 0x4a, 0x32, 0x1c, 0x3c,
  0x31, 0xbe, 0xe2, 0xbc, 0x58, 0xe4, 0x49, 0x3c, 0x36, 0x00, 0x94, 0xba,
  0xd9, 0x69, 0x23, 0x3d, 0x86, 0x46, 0xae, 0x3c, 0x00, 0x6c, 0x2f, 0xbc,
  0xa3, 0x24, 0x20, 0x3d, 0x28, 0xaf, 0x2b, 0x3c, 0x40, 0x5a, 0xd4, 0xbc,
  0xa8, 0x93, 0x3c, 0x3c, 0x4c, 0xbc, 0x7b, 0xbc, 0xf0, 0xc7, 0x09, 0xbd,
  0xba, 0x67, 0x83, 0x3c, 0x00, 0x52, 0x5b, 0x3b, 0x98, 0xb8, 0xa1, 0x3b,
  0xdd, 0x07, 0x25, 0xbd, 0xc2, 0x10, 0xfa, 0x3c, 0xee, 0xf8, 0x87, 0x3c,
  0xda, 0x59, 0x36, 0xbd, 0x0c, 0x40, 0x28, 0x3c, 0x0c, 0xf3, 0x1b, 0xbc,
  0xa0, 0x1e, 0x2c, 0x3b, 0xd0, 0xcc, 0x72, 0xbb, 0x20, 0xbd, 0x89, 0xbc,
  0x60, 0xfa, 0xe1, 0xba, 0x4d, 0x38, 0x2b, 0xbd, 0xcc, 0x24, 0x24, 0xbc,
  0x98, 0xa1, 0x92, 0x3b, 0x67, 0xe0, 0x2c, 0x3d, 0x76, 0xae, 0x0b, 0xbd,
  0xb2, 0x25, 0xce, 0x3c, 0x1a, 0xee, 0x28, 0xbd, 0xa2, 0xb6, 0xf6, 0x3c,
  0xf2, 0xc6, 0xcf, 0x3c, 0xa0, 0xf2, 0x4f, 0x3b, 0xe6, 0xcf, 0xbf, 0x3c,
  0x14, 0xf5, 0xa4, 0x3b, 0xe0, 0x57, 0x88, 0x3c, 0xd3, 0x32, 0x10, 0xbd,
  0xe6, 0x42, 0x93, 0xbc, 0x6b, 0xd5, 0x52, 0xbd, 0xb0, 0x59, 0xb6, 0x3b,
  0xac, 0xad, 0x05, 0xbd, 0x4c, 0x1b, 0x4d, 0xbc, 0xa1, 0x0d, 0x40, 0x3d,
  0xdf, 0xef, 0xd7, 0x3c, 0x06, 0x5a, 0xe7, 0x3c, 0x35, 0x65, 0x0a, 0xbd,
  0x34, 0x31, 0x60, 0xbc, 0x06, 0x55, 0x99, 0x3c, 0x1c, 0xd9, 0x17, 0xbd,
  0x13, 0xd3, 0x48, 0xbd, 0xc0, 0x86, 0xce, 0xba, 0x73, 0x61, 0xdd, 0xbc,
  0x00, 0x30, 0x17, 0x3d, 0x60, 0x96, 0xc6, 0xbc, 0xea, 0xb8, 0x17, 0xbd,
  0xa2, 0x13, 0xb6, 0x3c, 0xc8, 0xfc, 0xa9, 0xbc, 0xee, 0x95, 0xda, 0x3c,
  0x27, 0x39, 0xc3, 0xbc, 0x98, 0x56, 0x0f, 0xbd, 0x87, 0x17, 0x11, 0x3d,
  0x47, 0xae, 0xd9, 0x3b, 0x5e, 0x78, 0x91, 0xbc, 0x1d, 0x25, 0x3f, 0xbd,
  0xc0, 0x9f, 0x28, 0xbd, 0xf4, 0xe6, 0x7b, 0xbc, 0x1d, 0xdc, 0x5b, 0x3f,
  0xee, 0xf4, 0x5c, 0x3f, 0x4a, 0xdc, 0x1d, 0xbf, 0x46, 0x54, 0xc1, 0xbc,
  0x5a, 0x6b, 0x52, 0x3f, 0x63, 0x4c, 0x21, 0x3d, 0xc2, 0xe1, 0xb1, 0x3e,
  0xa7, 0x35, 0xf2, 0xbc, 0x83, 0x77, 0x26, 0xbd, 0xdf, 0x21, 0xb9, 0x3e,
  0xd1, 0x82, 0x25, 0x3d, 0x81, 0x51, 0x19, 0xbf, 0xef, 0x55, 0xf2, 0xbe,
  0x3a, 0x4c, 0x1e, 0xbd, 0xfb, 0x2f, 0x35, 0xbe, 0xd0, 0x3b, 0xab, 0xbb,
  0xe1, 0x9f, 0x07, 0xbf, 0x14, 0x61, 0x0d, 0xbf, 0x7a, 0xe1, 0x26, 0x3f,
  0x88, 0x7d, 0xa0, 0x3c, 0xe6, 0x81, 0x0a, 0xbf, 0xd0, 0x23, 0xd4, 0xbb,
  0xb2, 0x1b, 0x15, 0x3f, 0x1d, 0x39, 0x3c, 0x3d, 0xd2, 0x78, 0x83, 0x3c,
  0x5c, 0xe6, 0x17, 0x3f, 0x8a, 0x8d, 0x01, 0xbd, 0xd7, 0x3f, 0x2b, 0x3f,
  0x77, 0x2d, 0x25, 0x3f, 0x12, 0xd3, 0x37, 0x3d, 0x66, 0xfe, 0x20, 0x3f,
  0x26, 0xee, 0xe0, 0x3c, 0x69, 0x55, 0x25, 0x3d, 0x70, 0xdc, 0x03, 0xbd,
  0x69, 0xde, 0x25, 0x3d, 0x68, 0x1c, 0xa7, 0x3b, 0x9a, 0xee, 0xb3, 0xbc,
  0x0d, 0x5c, 0x28, 0xbd, 0xed, 0xcc, 0x9f, 0xbb, 0xa0, 0x03, 0xb8, 0xba,
  0x8e, 0x3f, 0xe4, 0x3c, 0xa2, 0xd4, 0x61, 0xbd, 0x00, 0x60, 0xc8, 0x3b,
  0xae, 0xba, 0x5b, 0x3b, 0xad, 0xba, 0x9b, 0xbc, 0x20, 0x1f, 0xd6, 0xbc,
  0x7a, 0x78, 0x16, 0xbd, 0x52, 0x57, 0xe1, 0x3c, 0x4f, 0xaf, 0xfe, 0xbe,
  0xad, 0xbc, 0xf6, 0xbe, 0x83, 0x21, 0x2b, 0x3f, 0x56, 0x21, 0x03, 0xbd,
  0x28, 0x6b, 0x15, 0xbf, 0x19, 0x00, 0x1f, 0x3d, 0xa6, 0x38, 0x12, 0x3f,
  0x93, 0xf8, 0xd6, 0xbc, 0xb4, 0xde, 0x10, 0xbc, 0x75, 0x1f, 0x15, 0x3f,
  0x4c, 0x27, 0x79, 0xbc, 0x66, 0xd5, 0x29, 0x3f, 0x63, 0xfc, 0x2b, 0x3f,
  0x2f, 0x97, 0x25, 0xbd, 0x09, 0xf6, 0x26, 0x3f, 0x7a, 0x41, 0xce, 0xbc,
  0x66, 0xff, 0xff, 0xff, 0x04, 0x00, 0x00, 0x00, 0x40, 0x00, 0x00, 0x00,
  0x86, 0xcc, 0x0c, 0x3f, 0xb7, 0x7d, 0x3c, 0xbc, 0xf0, 0xaf, 0xc4, 0xbb,
  0xfa, 0xa0, 0xc4, 0xbb, 0xd3, 0x7f, 0x36, 0xbc, 0x6a, 0x21, 0x56, 0xbc,
  0xa2, 0xd4, 0x3f, 0xbc, 0xe1, 0xff, 0x20, 0xbc, 0x00, 0x00, 0x00, 0x00,
  0x00, 0x00, 0x00, 0x00, 0xba, 0xed, 0xad, 0xbb, 0x35, 0xbd, 0xc4, 0xbb,
  0xb0, 0x74, 0x03, 0x3f, 0x1d, 0x4b, 0x18, 0x3e, 0xeb, 0x47, 0x09, 0xbc,
  0xa4, 0x22, 0xec, 0x3d, 0xb2, 0xff, 0xff, 0xff, 0x04, 0x00, 0x00, 0x00,
  0x40, 0x00, 0x00, 0x00, 0x18, 0x04, 0x49, 0x3f, 0x2d, 0xca, 0x52, 0x3a,
  0x96, 0x36, 0x70, 0x3c, 0xed, 0xe4, 0x13, 0xbd, 0xce, 0xd0, 0x80, 0xbb,
  0x8a, 0x28, 0xe2, 0x3c, 0xf0, 0x4d, 0x9c, 0x3c, 0x70, 0xdc, 0xec, 0xbb,
  0xb7, 0xb1, 0x33, 0x3d, 0x01, 0xd5, 0x29, 0x3d, 0x8a, 0x38, 0x84, 0xbc,
  0x82, 0x07, 0x15, 0x3d, 0x3b, 0xbb, 0x54, 0x3f, 0x1d, 0xb0, 0x25, 0xbf,
  0xed, 0x7e, 0x06, 0xbb, 0xed, 0xa0, 0x24, 0xbf, 0x00, 0x00, 0x06, 0x00,
  0x08, 0x00, 0x04, 0x00, 0x06, 0x00, 0x00, 0x00, 0x04, 0x00, 0x00, 0x00,
  0x04, 0x00, 0x00, 0x00, 0x4e, 0xe0, 0x10, 0x3e, 0x3c, 0xfb, 0xff, 0xff,
  0x0f, 0x00, 0x00, 0x00, 0x54, 0x4f, 0x43, 0x4f, 0x20, 0x43, 0x6f, 0x6e,
  0x76, 0x65, 0x72, 0x74, 0x65, 0x64, 0x2e, 0x00, 0x01, 0x00, 0x00, 0x00,
  0x10, 0x00, 0x00, 0x00, 0x0c, 0x00, 0x14, 0x00, 0x04, 0x00, 0x08, 0x00,
  0x0c, 0x00, 0x10, 0x00, 0x0c, 0x00, 0x00, 0x00, 0x20, 0x01, 0x00, 0x00,
  0x14, 0x01, 0x00, 0x00, 0x08, 0x01, 0x00, 0x00, 0x04, 0x00, 0x00, 0x00,
  0x04, 0x00, 0x00, 0x00, 0xc0, 0x00, 0x00, 0x00, 0x78, 0x00, 0x00, 0x00,
  0x34, 0x00, 0x00, 0x00, 0x10, 0x00, 0x00, 0x00, 0x00, 0x00, 0x0a, 0x00,
  0x10, 0x00, 0x04, 0x00, 0x08, 0x00, 0x0c, 0x00, 0x0a, 0x00, 0x00, 0x00,
  0x01, 0x00, 0x00, 0x00, 0x10, 0x00, 0x00, 0x00, 0x04, 0x00, 0x00, 0x00,
  0x01, 0x00, 0x00, 0x00, 0x00, 0x00, 0x00, 0x00, 0x01, 0x00, 0x00, 0x00,
  0x08, 0x00, 0x00, 0x00, 0xce, 0xff, 0xff, 0xff, 0x00, 0x00, 0x00, 0x08,
  0x18, 0x00, 0x00, 0x00, 0x0c, 0x00, 0x00, 0x00, 0x04, 0x00, 0x00, 0x00,
  0xd0, 0xfb, 0xff, 0xff, 0x01, 0x00, 0x00, 0x00, 0x08, 0x00, 0x00, 0x00,
  0x03, 0x00, 0x00, 0x00, 0x07, 0x00, 0x00, 0x00, 0x09, 0x00, 0x00, 0x00,
  0x0a, 0x00, 0x00, 0x00, 0x00, 0x00, 0x0e, 0x00, 0x14, 0x00, 0x00, 0x00,
  0x08, 0x00, 0x0c, 0x00, 0x07, 0x00, 0x10, 0x00, 0x0e, 0x00, 0x00, 0x00,
  0x00, 0x00, 0x00, 0x08, 0x1c, 0x00, 0x00, 0x00, 0x10, 0x00, 0x00, 0x00,
  0x04, 0x00, 0x00, 0x00, 0xba, 0xff, 0xff, 0xff, 0x00, 0x00, 0x00, 0x01,
  0x01, 0x00, 0x00, 0x00, 0x07, 0x00, 0x00, 0x00, 0x03, 0x00, 0x00, 0x00,
  0x04, 0x00, 0x00, 0x00, 0x05, 0x00, 0x00, 0x00, 0x06, 0x00, 0x00, 0x00,
  0x00, 0x00, 0x0e, 0x00, 0x16, 0x00, 0x00, 0x00, 0x08, 0x00, 0x0c, 0x00,
  0x07, 0x00, 0x10, 0x00, 0x0e, 0x00, 0x00, 0x00, 0x00, 0x00, 0x00, 0x08,
  0x24, 0x00, 0x00, 0x00, 0x18, 0x00, 0x00, 0x00, 0x0c, 0x00, 0x00, 0x00,
  0x00, 0x00, 0x06, 0x00, 0x08, 0x00, 0x07, 0x00, 0x06, 0x00, 0x00, 0x00,
  0x00, 0x00, 0x00, 0x01, 0x01, 0x00, 0x00, 0x00, 0x04, 0x00, 0x00, 0x00,
  0x03, 0x00, 0x00, 0x00, 0x01, 0x00, 0x00, 0x00, 0x02, 0x00, 0x00, 0x00,
  0x03, 0x00, 0x00, 0x00, 0x01, 0x00, 0x00, 0x00, 0x00, 0x00, 0x00, 0x00,
  0x01, 0x00, 0x00, 0x00, 0x01, 0x00, 0x00, 0x00, 0x0b, 0x00, 0x00, 0x00,
  0x5c, 0x03, 0x00, 0x00, 0xf0, 0x02, 0x00, 0x00, 0x8c, 0x02, 0x00, 0x00,
  0x40, 0x02, 0x00, 0x00, 0xf8, 0x01, 0x00, 0x00, 0x94, 0x01, 0x00, 0x00,
  0x48, 0x01, 0x00, 0x00, 0x00, 0x01, 0x00, 0x00, 0xb4, 0x00, 0x00, 0x00,
  0x50, 0x00, 0x00, 0x00, 0x04, 0x00, 0x00, 0x00, 0xde, 0xfc, 0xff, 0xff,
  0x3c, 0x00, 0x00, 0x00, 0x01, 0x00, 0x00, 0x00, 0x0c, 0x00, 0x00, 0x00,
  0x04, 0x00, 0x00, 0x00, 0xd0, 0xfc, 0xff, 0xff, 0x21, 0x00, 0x00, 0x00,
  0x73, 0x65, 0x71, 0x75, 0x65, 0x6e, 0x74, 0x69, 0x61, 0x6c, 0x5f, 0x36,
  0x2f, 0x64, 0x65, 0x6e, 0x73, 0x65, 0x5f, 0x32, 0x30, 0x2f, 0x4d, 0x61,
  0x74, 0x4d, 0x75, 0x6c, 0x5f, 0x62, 0x69, 0x61, 0x73, 0x00, 0x00, 0x00,
  0x01, 0x00, 0x00, 0x00, 0x01, 0x00, 0x00, 0x00, 0x26, 0xfd, 0xff, 0xff,
  0x50, 0x00, 0x00, 0x00, 0x02, 0x00, 0x00, 0x00, 0x0c, 0x00, 0x00, 0x00,
  0x04, 0x00, 0x00, 0x00, 0x18, 0xfd, 0xff, 0xff, 0x35, 0x00, 0x00, 0x00,
  0x73, 0x65, 0x71, 0x75, 0x65, 0x6e, 0x74, 0x69, 0x61, 0x6c, 0x5f, 0x36,
  0x2f, 0x64, 0x65, 0x6e, 0x73, 0x65, 0x5f, 0x32, 0x30, 0x2f, 0x4d, 0x61,
  0x74, 0x4d, 0x75, 0x6c, 0x2f, 0x52, 0x65, 0x61, 0x64, 0x56, 0x61, 0x72,
  0x69, 0x61, 0x62, 0x6c, 0x65, 0x4f, 0x70, 0x2f, 0x74, 0x72, 0x61, 0x6e,
  0x73, 0x70, 0x6f, 0x73, 0x65, 0x00, 0x00, 0x00, 0x02, 0x00, 0x00, 0x00,
  0x01, 0x00, 0x00, 0x00, 0x10, 0x00, 0x00, 0x00, 0x86, 0xfd, 0xff, 0xff,
  0x38, 0x00, 0x00, 0x00, 0x0b, 0x00, 0x00, 0x00, 0x0c, 0x00, 0x00, 0x00,
  0x04, 0x00, 0x00, 0x00, 0x78, 0xfd, 0xff, 0xff, 0x1d, 0x00, 0x00, 0x00,
  0x73, 0x65, 0x71, 0x75, 0x65, 0x6e, 0x74, 0x69, 0x61, 0x6c, 0x5f, 0x36,
  0x2f, 0x64, 0x65, 0x6e, 0x73, 0x65, 0x5f, 0x32, 0x30, 0x2f, 0x42, 0x69,
  0x61, 0x73, 0x41, 0x64, 0x64, 0x00, 0x00, 0x00, 0x02, 0x00, 0x00, 0x00,
  0x01, 0x00, 0x00, 0x00, 0x01, 0x00, 0x00, 0x00, 0xce, 0xfd, 0xff, 0xff,
  0x34, 0x00, 0x00, 0x00, 0x0a, 0x00, 0x00, 0x00, 0x0c, 0x00, 0x00, 0x00,
  0x04, 0x00, 0x00, 0x00, 0xc0, 0xfd, 0xff, 0xff, 0x1a, 0x00, 0x00, 0x00,
  0x73, 0x65, 0x71, 0x75, 0x65, 0x6e, 0x74, 0x69, 0x61, 0x6c, 0x5f, 0x36,
  0x2f, 0x64, 0x65, 0x6e, 0x73, 0x65, 0x5f, 0x31, 0x39, 0x2f, 0x52, 0x65,
  0x6c, 0x75, 0x00, 0x00, 0x02, 0x00, 0x00, 0x00, 0x01, 0x00, 0x00, 0x00,
  0x10, 0x00, 0x00, 0x00, 0x12, 0xfe, 0xff, 0xff, 0x3c, 0x00, 0x00, 0x00,
  0x03, 0x00, 0x00, 0x00, 0x0c, 0x00, 0x00, 0x00, 0x04, 0x00, 0x00, 0x00,
  0x04, 0xfe, 0xff, 0xff, 0x21, 0x00, 0x00, 0x00, 0x73, 0x65, 0x71, 0x75,
  0x65, 0x6e, 0x74, 0x69, 0x61, 0x6c, 0x5f, 0x36, 0x2f, 0x64, 0x65, 0x6e,
  0x73, 0x65, 0x5f, 0x31, 0x39, 0x2f, 0x4d, 0x61, 0x74, 0x4d, 0x75, 0x6c,
  0x5f, 0x62, 0x69, 0x61, 0x73, 0x00, 0x00, 0x00, 0x01, 0x00, 0x00, 0x00,
  0x10, 0x00, 0x00, 0x00, 0x5a, 0xfe, 0xff, 0xff, 0x50, 0x00, 0x00, 0x00,
  0x04, 0x00, 0x00, 0x00, 0x0c, 0x00, 0x00, 0x00, 0x04, 0x00, 0x00, 0x00,
  0x4c, 0xfe, 0xff, 0xff, 0x35, 0x00, 0x00, 0x00, 0x73, 0x65, 0x71, 0x75,
  0x65, 0x6e, 0x74, 0x69, 0x61, 0x6c, 0x5f, 0x36, 0x2f, 0x64, 0x65, 0x6e,
  0x73, 0x65, 0x5f, 0x31, 0x39, 0x2f, 0x4d, 0x61, 0x74, 0x4d, 0x75, 0x6c,
  0x2f, 0x52, 0x65, 0x61, 0x64, 0x56, 0x61, 0x72, 0x69, 0x61, 0x62, 0x6c,
  0x65, 0x4f, 0x70, 0x2f, 0x74, 0x72, 0x61, 0x6e, 0x73, 0x70, 0x6f, 0x73,
  0x65, 0x00, 0x00, 0x00, 0x02, 0x00, 0x00, 0x00, 0x10, 0x00, 0x00, 0x00,
  0x10, 0x00, 0x00, 0x00, 0xba, 0xfe, 0xff, 0xff, 0x34, 0x00, 0x00, 0x00,
  0x07, 0x00, 0x00, 0x00, 0x0c, 0x00, 0x00, 0x00, 0x04, 0x00, 0x00, 0x00,
  0xac, 0xfe, 0xff, 0xff, 0x1a, 0x00, 0x00, 0x00, 0x73, 0x65, 0x71, 0x75,
  0x65, 0x6e, 0x74, 0x69, 0x61, 0x6c, 0x5f, 0x36, 0x2f, 0x64, 0x65, 0x6e,
  0x73, 0x65, 0x5f, 0x31, 0x38, 0x2f, 0x52, 0x65, 0x6c, 0x75, 0x00, 0x00,
  0x02, 0x00, 0x00, 0x00, 0x01, 0x00, 0x00, 0x00, 0x10, 0x00, 0x00, 0x00,
  0xfe, 0xfe, 0xff, 0xff, 0x3c, 0x00, 0x00, 0x00, 0x09, 0x00, 0x00, 0x00,
  0x0c, 0x00, 0x00, 0x00, 0x04, 0x00, 0x00, 0x00, 0xf0, 0xfe, 0xff, 0xff,
  0x21, 0x00, 0x00, 0x00, 0x73, 0x65, 0x71, 0x75, 0x65, 0x6e, 0x74, 0x69,
  0x61, 0x6c, 0x5f, 0x36, 0x2f, 0x64, 0x65, 0x6e, 0x73, 0x65, 0x5f, 0x31,
  0x38, 0x2f, 0x4d, 0x61, 0x74, 0x4d, 0x75, 0x6c, 0x5f, 0x62, 0x69, 0x61,
  0x73, 0x00, 0x00, 0x00, 0x01, 0x00, 0x00, 0x00, 0x10, 0x00, 0x00, 0x00,
  0x46, 0xff, 0xff, 0xff, 0x50, 0x00, 0x00, 0x00, 0x05, 0x00, 0x00, 0x00,
  0x0c, 0x00, 0x00, 0x00, 0x04, 0x00, 0x00, 0x00, 0x38, 0xff, 0xff, 0xff,
  0x35, 0x00, 0x00, 0x00, 0x73, 0x65, 0x71, 0x75, 0x65, 0x6e, 0x74, 0x69,
  0x61, 0x6c, 0x5f, 0x36, 0x2f, 0x64, 0x65, 0x6e, 0x73, 0x65, 0x5f, 0x31,
  0x38, 0x2f, 0x4d, 0x61, 0x74, 0x4d, 0x75, 0x6c, 0x2f, 0x52, 0x65, 0x61,
  0x64, 0x56, 0x61, 0x72, 0x69, 0x61, 0x62, 0x6c, 0x65, 0x4f, 0x70, 0x2f,
  0x74, 0x72, 0x61, 0x6e, 0x73, 0x70, 0x6f, 0x73, 0x65, 0x00, 0x00, 0x00,
  0x02, 0x00, 0x00, 0x00, 0x10, 0x00, 0x00, 0x00, 0x03, 0x00, 0x00, 0x00,
  0xa6, 0xff, 0xff, 0xff, 0x48, 0x00, 0x00, 0x00, 0x08, 0x00, 0x00, 0x00,
  0x2c, 0x00, 0x00, 0x00, 0x0c, 0x00, 0x00, 0x00, 0x08, 0x00, 0x0c, 0x00,
  0x04, 0x00, 0x08, 0x00, 0x08, 0x00, 0x00, 0x00, 0x10, 0x00, 0x00, 0x00,
  0x04, 0x00, 0x00, 0x00, 0x01, 0x00, 0x00, 0x00, 0x00, 0x00, 0x7f, 0x43,
  0x01, 0x00, 0x00, 0x00, 0x00, 0x00, 0x00, 0x00, 0x0e, 0x00, 0x00, 0x00,
  0x64, 0x65, 0x6e, 0x73, 0x65, 0x5f, 0x31, 0x38, 0x5f, 0x69, 0x6e, 0x70,
  0x75, 0x74, 0x00, 0x00, 0x02, 0x00, 0x00, 0x00, 0x01, 0x00, 0x00, 0x00,
  0x03, 0x00, 0x00, 0x00, 0x00, 0x00, 0x0e, 0x00, 0x14, 0x00, 0x04, 0x00,
  0x00, 0x00, 0x08, 0x00, 0x0c, 0x00, 0x10, 0x00, 0x0e, 0x00, 0x00, 0x00,
  0x28, 0x00, 0x00, 0x00, 0x06, 0x00, 0x00, 0x00, 0x10, 0x00, 0x00, 0x00,
  0x08, 0x00, 0x00, 0x00, 0x04, 0x00, 0x04, 0x00, 0x04, 0x00, 0x00, 0x00,
  0x08, 0x00, 0x00, 0x00, 0x49, 0x64, 0x65, 0x6e, 0x74, 0x69, 0x74, 0x79,
  0x00, 0x00, 0x00, 0x00, 0x02, 0x00, 0x00, 0x00, 0x01, 0x00, 0x00, 0x00,
  0x01, 0x00, 0x00, 0x00, 0x02, 0x00, 0x00, 0x00, 0x20, 0x00, 0x00, 0x00,
  0x0c, 0x00, 0x00, 0x00, 0x00, 0x00, 0x06, 0x00, 0x06, 0x00, 0x05, 0x00,
  0x06, 0x00, 0x00, 0x00, 0x00, 0x0e, 0x0a, 0x00, 0x0c, 0x00, 0x07, 0x00,
  0x00, 0x00, 0x08, 0x00, 0x0a, 0x00, 0x00, 0x00, 0x00, 0x00, 0x00, 0x09,
  0x03, 0x00, 0x00, 0x00 };
const int g_greenhouse_model_data_len = 2992 ;
